300
body.stage1.0.0.weight 216 3dcd13bf 3d4446ec bc7c815b be24005f 3e490567 3eb360dc 3e335ba5 bd30eb48 bb0f4c95 3e3000c4 bdfa5024 be1be580 be05ad81 3e839071 3edb5875 3e5567e1 3d9fc29d 3ddb7a5d 3e60fb0b bd91510e bdda7898 be2fe5ca 3c966568 3e6d4aac 3e8620ad bd0f718d 3cfc6009 be111aa6 be3b24c1 beb40f72 be86b091 3e4e0cd5 3e359d97 be2f8332 3d9830a5 3e00fe19 3de35cff 3da68ef1 3c650c00 bcb63e12 3ebdea74 3ed3138a 3d4433f1 3e203098 3e7b9c0e 3e9920f4 3e49921e 3e7fc59c bc349324 3d4d2169 3e110498 3e1fc90c bd5e3765 3d7239f1 3d015362 bd770fbb 3cfc14d3 bdd60407 3cbdbb96 3c841131 bda35fed 3e4d3755 3ea82946 3dd59be9 be522ece be1028ed be34dc9d 3efad052 3f1f45f6 be2911d6 3f315849 3f6f7d45 3e0e1baa 3dfa3420 3e43c23b 3de7ec4f 3df576c4 3e3c7fec 3dac073a 3d623a4c 3e89bb22 3eade6e3 3f2f91d2 3f21ea91 3f09a707 3f5ed31b 3f44e20e 3ec36d4e 3f29ce0e 3f20676a be7be352 be91b7ee bea18e8c be90acec bed30563 bef58f80 be97f3b8 be93f20a beb58dec be15f9a1 bebcd09c be8f7fb0 be5a341a bf0447a8 bf0180e6 be22b52c beaeb9db beb65971 3d828347 bc8f9358 bd4f9f35 be2682f1 be154e05 bc169f83 bd59d610 bde7f1ea 3d923094 be0cfb1c be2dbf42 bd97abfd bee2cc4a bef57e83 be138bfd be8cee8a bea08f4c bbb53daa bdae83fb be0f6fbe be22b55b be27940c be193e48 bda0f6a3 be7198ae be88c360 bd927f6c 3e4c006e 3da27261 3cd9112f 3e1f193e 3e742a38 3edc68a9 3e2fcc50 bdb48d63 3d527f99 3e2ae07d 3d0dcf99 bdb28e9f 3e04f945 3e93b274 3eff4082 3e04ea20 bcae84a9 3e238325 bdc2577d bd2b372d be9a57d1 be217291 3e0e9cbf 3e18806d be00519c bd969409 be085f22 3e9b4424 3e30a209 3e4f341d 3e838358 3e3a0a31 3e518288 3e9b2ebc 3e25b547 3e285599 bf22e48f bf3a0570 bf40c50e bf37fe94 bf3a294c bf3d8614 bf246ba7 bf3d78d8 bf45a4da 3ea81e38 3edb5f85 3eb09a96 3ebde045 3f1b17f3 3f139bf4 3e8a50b9 3ee117a9 3ee663fd 3d2d5eed 3d88a5fc bd4c133e 3ca3899b bd85312c bd4896de 3d2681a3 bd0c1286 3db47e42 3cc9a0a5 3d8ec598 bd44e6ac 3d0d00b1 bd1af012 bb916a07 3d112752 bd681877 3db288a2 3d2c63c4 3db9e3c6 3ba87758 3c3b7b08 bc91f483 3d1b1313 3d2540ff bc36d7c8 3e1076c9
body.stage1.0.1.weight 8 3e92b3ee 3e1eece3 3e9e6198 3f916943 3e8fa57a 3e0aaada 3ef3bbc0 bc94b788
body.stage1.0.1.bias 8 3f12ba3f bf002ca9 3f338971 bf7b64d9 3f497bef 3ef2eca5 bf50acbe bf2ef7f4
body.stage1.0.1.running_mean 8 c0bbefd2 c1b38ff5 c1c1aebd 4290e09a 41c63f42 411fe4f7 c1e2d28d c0a360f6
body.stage1.0.1.running_var 8 463cb8b0 46582467 4743cbe8 46a5d2bc 4741b248 46597295 46432815 445b16fd
body.stage1.0.1.num_batches_tracked 1 48091200
body.stage1.1.0.weight 72 3edfdc15 3f07bd84 3d5d4183 3e54b9d9 3e070345 3cdcd4fb 3dd208f1 be9e68fd 3e134be9 be18ea40 baf42acc 3c84350a be06d339 bf8214d4 be5c7e2b be4c8c7e 3e3347da be0ca5c5 be7699b2 400e7f7a 3e88a383 bb502302 be8b3a7e 3b960d95 3e0b1e09 bdc78e23 3e09e4c1 bde42094 be4788df be0c8c9d bdbc5e97 bf817ded be11340a be1be8e5 be900c1b bcbaad98 3e09b5e1 bfcffb48 c003a646 3e1abd2c 3f67b3bb 3f6a2891 bd85737c 3f462399 3f970379 bcfbe5b0 bde7fb00 3d97c9bb 3dbe3db2 bf742491 bd82824f be6ccf8f 3dd4344c bdb95971 3d9f8cc6 bd760972 3d703132 bbbdb32b bf57581f be788a67 3d1b7fea bdfc17f9 bd73efeb 3e23f377 3f0b79f3 be6d1c5b be3f89ff bd1b6cc3 bd0cf7a7 bc1b1081 3d3f3533 bd56b9a3
body.stage1.1.1.weight 8 3eb83a01 3f246900 3ee56eba 3fd19813 3eb8461a 3f33ecbf 3f803c91 3f209772
body.stage1.1.1.bias 8 3f3450f1 bf1a5031 3f8830fa bd4c2b07 3f5bdeaf bf0da64c bd164b19 bef86447
body.stage1.1.1.running_mean 8 3f41c606 3da9eced 3fc0af0a bd600a6d 3e7ad2c9 bf132271 3da5dad6 bc5e1843
body.stage1.1.1.running_var 8 3e12d6eb 3a2c1888 3ee5df3f 3fefdad1 3dc4e32e 3cdaa56b 3ce39ea9 36a61aef
body.stage1.1.1.num_batches_tracked 1 48091200
body.stage1.1.3.weight 128 beafb9fb bda5ea3b bd4a3593 bd28adeb bf8d4fbc bd0d66cd 3b80f443 be49ed3f 3ec83ec9 3cfb3c26 3f1392ba be6d3734 bdc6e51b bdfa926b 3d367080 3e48a5c4 bec35c7d 3d9f0533 3f0241dd bcc71251 3ea4dea3 bc6c8a72 bb59e872 bef8f663 3e874793 bca17fe5 bf3e8ebb bdedce8f bc6e8b67 3de2f617 bc84873f bed6a487 3cdcf649 be52997a be81f565 3d95a016 bf069054 bc93dd80 bcd0ee9f be3113f1 3de9fc9e 3f1c6828 3d0ccdb5 bf580b85 3bcceae4 bf0bccf6 3f34226c be798b6c 3f200241 3d51369d bf016a88 bd3beafb be51b40c 3d810e98 bd8aa9ab bed3ba13 3cb4bf3b bdfa12ca bda8c430 3f7d4bc9 3da7e6d0 bd0dac9a 3f55cd28 3d2efcea be5b5bc7 3d52d6f9 bf406624 be2eab3e 3d5eb5de 3ddc6c77 3d9a6ff1 bec90a7e bc5f2a9d 3dde460c bf548472 bdfd996a 3dc964f7 3e4866b5 3db94978 3b251a35 3f306005 be80a457 3eeb9ba6 39b79337 bcedfbac be1e2a55 bd5f652f 3e32ba37 3d9d7e36 bea7a748 3deb3321 3f50425b bcf64d37 3ea56ef8 be0b044a bdbd66b1 3df4e814 3e16d8a1 3c9e394a bfac8af0 bce2e6e5 3d1c8090 3e4cdf70 3e28efbb bf181f78 3d884768 3f033807 bdd851e2 be74c875 3e3017f2 bcdc3613 3cf44f2d bd54316b be684a36 bda2bd63 be778abb 3c9319a2 3e0ca2ba bf9cab00 be1ea9e3 3dcfb957 bc91b561 bf01f77c bd0a7c08 bfb95552 bc86ebc5 3c85e333 bddd1c40
body.stage1.1.4.weight 16 3e9890d0 3efe4a90 3d3d20f5 3e19c77d 3dd4b7a4 3f0935b4 3ea0cbad 3e4c5483 3e953d6e 3f0c58bb 3e65b722 3ef82eda 3e2e6ba3 3e1ae595 3ef7cc9d 3f2a5858
body.stage1.1.4.bias 16 3ee98c05 bf423d82 3f00effb 3f16e705 3f1217d8 3eb681b3 3eb92020 3f22a352 3f377a6c bf22f588 3f12f98c bd93f5d5 3f0a3cc5 3ebdbaa3 3e65cd12 3e130d3b
body.stage1.1.4.running_mean 16 bfa0da83 3f3d3897 3f0feb26 bf229d33 bf2f4478 bcc31bbd be901132 3eb6b99d bf6cf868 bf540678 3f6fdf70 3eb8781f be85936e bde0ce95 be9ad7d3 bfdd2d45
body.stage1.1.4.running_var 16 3e0f5ee1 3e3387a3 3cbd0128 3d99dd51 3d1cbf3c 3e111bbb 3cca11a8 3e21290f 3e4b49df 3e44bbae 3e853742 3da8487c 3e2aa87f 3bd2239b 3e1df201 3e6245fd
body.stage1.1.4.num_batches_tracked 1 48091200
body.stage1.2.0.weight 144 3df81f6a 3cd608e0 bda6442a bd3fef13 bf3268e9 3ca378eb bea4cb77 bf0ae91b be556c9e be2316de 3ea3e2e3 bd8aa6d5 bddb3414 3e30c3f6 3ec4e516 3d07e0e1 bc0a53ed 3eb94f75 be6eed6c bedc43fa be69bdeb 3ed2a946 3f833002 3edb08a4 be1347a6 bef6a8a0 be6d7dd7 bddfd8b3 3f0bedd3 befbb7c5 becd28f1 3fc2ec5a bf86aa16 be8f0b93 3f841bce bf444289 3e2ef4cc 3d06df15 3e816ba6 3d3d735e 3e76998a 3f37e669 bdc7e34b 3ca1e3ef bf5f0eef 3da750ab beaad04b bed279b4 bebdbf06 3e106609 3f3326fe bee49ca8 3eb1ef6d 3f8c6c06 bdae585e bec63e92 bf4160e3 be57d8e3 3e809e47 3f63b4bf 3e7273f1 3e06fa92 bde4ee44 3ca4ce08 be2b3e10 be830abf be9dc01f 3e021f6d 3f2154cf bea4d94b 3e997f24 3f674048 bf216ba1 3eef5c82 3e9e1395 bf8ce68e 3f080d2e 3ee9270f bef32d73 3e4b9d7b 3e0307d7 3d9f8a8f 3ece5f9f 3e9c16c5 3db1fa19 3e148f46 3e488521 bdf1741b bec3e08e beaea796 bdcaa0cb 3f13c715 be34f67c 3f0bee52 bdb19706 bf1b4d49 3f5214e7 beef9cf2 bf312a1e beccabaa 3ea13f72 3f1aa847 be3b7257 3e760605 3e83ee8f be1a82fe be0e6562 bec9b331 bee173f9 3f100a18 3f9bccd8 be1aff7a bd8280d4 3eb3e1b7 3e648ddb bf16df4d bf4ef359 3e475e68 3e99d779 bf16aca5 bf0bb415 be6ebe24 3f3a35fe 3e1ee40a 3d6cfcee be70e781 3dbc8db3 be313b25 bedeeeb2 be6ff29a 3dea2122 3eec3f25 bf094093 3e6afb3b 3f678583 be315f92 bf54891a bdeb633d bc73502d be855a87 be1d1013 bd947d8a 3deba191 3d18b6ee
body.stage1.2.1.weight 16 3eeb8848 3e7cc993 3f0ae637 3ed1edba 3f2da25a 3ecb07df 3ee14696 3e6b5085 3f0d5007 3e588fc7 3ec2b95b 3e32a09f 3e957249 3e92d53a 3e0724bd 3f0029e1
body.stage1.2.1.bias 16 3f47a70a 3eb194af 3f009154 3fa18779 3e1ccfe1 3f4e488e 3e89bc2c 3f12bfd5 3f3ad67d 3d88e069 3f750e8b 3e1e7273 3ed582e5 bd639455 3e9de98f 3e3c2e13
body.stage1.2.1.running_mean 16 bf52b3cd bd573478 3d6ecb46 bc2bbed3 3e91e295 3ea1101d bc8fce84 3f187965 bd8857ff bc1989de bded768c 3c8636b7 3e23d041 bd7584ac 3e0ba8e3 beabe6a2
body.stage1.2.1.running_var 16 3da58021 3c275b98 3b104d20 3b80bc99 3c4f0c5c 3e1d1a63 3c4a3d09 3d1446da 3ce18727 3b96538d 3c18c193 3b7a758b 3c0d329c 3aa89bec 3caa9a99 3e554314
body.stage1.2.1.num_batches_tracked 1 48091200
body.stage1.2.3.weight 512 bf0ca3b6 3d01e995 bce02a18 3d895698 bd8477aa 3d172d11 bd086f2d 3d336abc bea7060b 3e8bcc77 be93cb8a bc07e5e7 3d2ebc3f bccd0ff0 3c26248b bf061ebb 3c42e6e1 be075989 3da86315 3d11823c 3c28e149 bee642aa 3db67509 becddbf3 be00f58d 3dcd43f5 3ea64f1b bd8b6422 3c288409 3d8b010d beb7508c bcb068ac bf25a7d7 bc6a748d bec3dcd7 3a8a3f05 bd286ef8 3d9b366d 3eabdf2f bdbab6b7 bd9829b3 bc81b96e 3e4bdf5c bc985b60 3e699f2e 3dbc808f bcbb0846 3e5400a1 3bb24a7e bd7b979a bd6ea695 3d6af21d be0dd3f3 3f4405c7 bca3be03 3f8711b2 bca8e396 3c2224d7 3e7c6e37 bce0b957 bdf905f5 3c9ac0ac beeeac87 3cfb2a21 bf0add38 bd2c1599 bdc89eae be53e9ae 3cde91fa bd2a9e60 bdfa5a6e bd24c9c6 3ea856d6 3e988ae6 3ec54b7c bd9ab123 bdd79709 bdaa11d9 baef1482 bed62253 3d30bdea 3dbf0bcb bd95862b 3fabb482 bd630844 3c81803d bd9c33c8 bcb36096 3eb89ef4 3b751277 3ddd27ec bc1269f9 3c659383 bce4dd05 3d33e792 bc964f08 3dea65e9 3ebca3a9 3e9f3a7e 3d5eab95 3ea7d9ea 3df011ce 3e885c6a bd1af8ad bc2a168c 3efc408b bc7388f7 3d244123 be849271 3e519937 3d947bc6 3c92540b beeeca22 3e06c1ae 3d7c5bea bdcfebac 3da6782e 3e054a30 3d2af65d bda5b01c 3e362b9e 3e685d80 3e7c9e37 3dae0e9c 3dce3cce 3d33e4e0 bcacbbb3 bec7ede7 3d4058d5 3c8a50d6 bd302982 3cd868e0 bd93713a 3f64e8a3 3d23ebe9 bebdd2d9 bc96feab 3daf343c 3da565e7 bc47102c be449397 3d14e2ce bf212bf2 bc928fb7 3f0c43c9 3d12da7c bce7c9d2 bd78befa bd9d9dde 3d3ecaad 3d2d1e19 bdb23453 3e4cb87e be59d955 3ea136a7 bbfa4ff3 bdfbc744 3dcdf9b6 3d4956f7 3f05f917 3caa7341 3d9f96ca bc6bf6a5 3c22335d bd026431 3ef05882 bc8e5d9b beb47a21 bce0856f bde89319 3d591e08 bea7c8d1 3eb60cab bb31e4f2 3ca86dd9 bd2c833f bddc74f3 3dffd619 bd946633 bd291edb beff7741 bd364e9c bf896484 3d980d2d 3d76d463 bd072854 3a7e41a1 3bba77fd 3b51da80 3f3cd65f bab3d890 3dd29d43 3da2afa8 bb95c685 bcd1e52c bf16482e 3d3c9efa bd8ab701 bd778492 3ced1872 3f1e7805 3cbc9f83 3eeaddd4 bbdddc38 bd8a6594 3ccae939 3d31d54b be032b98 be285898 be3bcc79 3d75566c be3b6f57 bf658901 3e4a02bb 3df32e61 bdb3311a 3e48d3d5 bcd3e0a0 3d8a5b5e bb45fd88 3d829284 3d0f0af3 bc2b04c6 bd624594 bd605e0b be5101c2 3d1a5b19 3bacfab1 3d84729a 3db485e8 3c126792 be8e85d3 3c945b66 bf0f4e47 bdf8af51 3ef0edca bf4e85ae bd257965 be00f22c bc722a75 bc3abe96 3c46f9e3 3c8746a8 3d96d869 bf02e400 3df09e2b 3e7409a2 bdc79f70 bdad442a be0aa84d 3e9a8d9e 3d9567ab bdf7cd2e 3d775e32 bd8cb00f 3ee06d18 bdbf8982 3d996512 bd0c2aa1 bcbb3e23 bcaf6863 3e670b3a bd5d5c2a be07242e bd9f1495 bdfafe99 3e59a455 bedef01a 3f5fc02d bb8eae86 3dc6d446 bd73e82d bd362688 3f3915ea bb825139 bcc4b936 bb98df4b 3e886edd 3ce6d14b 3c982ad2 3ddc0783 be7a49ad bf8d22ec 3dd1d7f7 bddd240b 3d38eda6 3d459d37 bd0edbef 3cc3533d bdaa214c ba1546b3 3af275c2 3bb00ecc 3f2a6a39 3d00f93c bf16e04b 37e9cf0a bd896362 bcd59a4c 3e9781f9 be9fb92c bd3e92fa 3eaad7dd 3d6d8757 3cb7f381 be24a964 bccdc621 bf3effe1 bccc7a88 3d022f83 3ac563b3 bd4c186f be87488e bc5537c9 be9ecf5f 3d5c51ea bc8588fb bd67c109 bd183de7 bd05f45e bebb258e be241927 bc0053ce be4af5df 3cbead78 bda94469 bd8b362b bd4505e0 3ed6cb16 3cb1cd45 3dbd7f9d bd6d87a5 3e1a0930 bc959762 3b09df7d bef70a6f 3cee64f3 3d5e88b2 3e466524 3fb08442 3dcc1865 bcb576cd 3d299a29 3d89a714 3eb807e9 bded26f7 3d6cbeac 3ce7f146 3d62e12e 3d1e9c00 3b208e74 bc46673b 3f2b3148 bd918028 bcd68e07 3d48151b bd041900 bd545977 3deab01e bd15e4d4 bdbb0811 bea00c97 3d895c78 be1488eb 3e342c29 baba751e bce5072c 3f200885 bdf31a24 3db2e9e5 be18a0dd 3d46bb5f be271cc0 3e1319da bcfa600c bd669944 bf96807f bd9b146a bea24554 3d89594b bc8287b6 bd0b8a36 bdf7b63f bd63be6d bd2814c9 bdbd97c6 ba4f1cd8 bdaf78ba bd538f8f bf19d763 3d618623 3ea718ea 3df0d49b bd9fd447 be0f43ec 3ec31d57 bdb7a96c 3d7529c8 3f04eb44 3ce31793 3ef82fd7 3ee0b537 3d9bf6d6 3d377d79 3e025f3c bd692fe0 3ddb0372 bdbc88de beefa7aa 3dcf089c be2f72c9 3e5a318f 3d845fe8 3d2450b9 bd25c480 3e88a239 bc002b70 bea04000 3dc7df53 bd2278e9 3df8f0ae beff49cd bba718ad 3ef20fd4 3d9de2ff be391422 be45b02e 3e171154 bd085ade 3d0a5276 bf27a1e6 3ce48af0 3db70000 3c896581 bf47e3df bdc9ce69 3f1fd902 bc079249 3d705023 bca5f381 3db02058 3d165bdf 3bd4ab78 38b8ad5d bd8c770d bd4f0b60 bd4c22bd bea2aa55 3eca5b4c 3e57e973 bc9179fd bebf2586 be0605c0 bdb4a0f2 3e359c04 bdea797f 3e476c50 bdd9baf5 3f0b5ee5 bcd50b2e 3c00dc1d bbf007f6 3ce09114 3e47a4c9 3db01f8f 3cc93800 3f979c75 bbd4d3a7 be270b7d bc86ae03 3dd983da bdbe7cce 3d66ab8e bddbc095 3e06bf20 bd171f5f 3d4728be bdb35121 bd3871e4 3d00ad64 bc6d2bee bda68490 bf6e6a78 3e00cebb 3eae0cc1 3aea8ba3 3f102b56 bd94766d bd30ccfd bb88b251 3e01c679 3d1fbfcf 3da34e3f 3e89f08e 3cd0b03b 3e1038f4 3e8ecd68 bd56cb4c 3d772a88 beac423d 3e7a9be3 bd8ab79f 3d9a15be 3bf6629a 3e452e54 3dee1fb8 be730c36 3cb1e4cf bc5f74e7 3e093cf9 bd8ba342 bee03626
body.stage1.2.4.weight 32 3e135a2e 3eb12467 3e1f663b 3eb74889 3e03ae11 3e310dc8 3e965636 3e63b4cf 3e90afb6 3dc6079e 3dbbc127 3f288f75 3e9a236f 3e9217ab 3e9f6574 3df3d680 3e9b1430 3e696b75 3e4e92c4 3e7802e9 3eba912a 3d81bd2d 3ea46eff 3ede216f 3eaffa60 3eb2cd8f 3e032b84 3e8dd95f 3dd3e229 3effd23a 3e0d2eaa 3dcc638b
body.stage1.2.4.bias 32 3eca537a bd8b28b0 3ebd3c21 3eba8f9c 3ef1ab3f 3e9d01d4 3dbca050 3e9440ff 3eddc8e5 3ef980a3 3ecf15cd 3dc32128 3eab7e8c 3e9a586a 3e6d3344 3ec79cc3 3e9b1366 3f04e067 3ea7adb2 3ea83880 bdb64ba4 3eb7137c 3d542ae0 3e9f5cf2 bf07cc20 3e4a956f 3f3860ab 3e8fc0f7 3ebf928e 3dc62b2e 3ec0245d 3eabe33e
body.stage1.2.4.running_mean 32 bf7517d8 becc3c42 beaf58ee 3f9ebe3a bec868e0 400510b3 3f2651b5 3ab232e1 3eb0da74 3f6360a7 3ea76a21 befc2106 3de296e6 be8573d9 bf201889 3eb9b5eb 3ee37b45 bf1edef7 3e4de948 bfc39c01 bec8f7aa 40135030 3f36aa11 bfa46f3c bea86ac2 3e6b737b bf0aad1d bebecdd8 3f047f34 3f4dcf71 3cf12867 bebd44e0
body.stage1.2.4.running_var 32 3ddc0130 3d824cd4 3e064d8b 3e0fce81 3e02c11f 3ea101ea 3d076849 3d9e95f5 3e0e6f15 3dd581fb 3db1478b 3df17ab7 3e069273 3e09ce5c 3d5a9627 3dc94c1d 3dcbad92 3e7bdfe9 3d937ae2 3ddf26d9 3ddb507e 3eacbfde 3dee640f 3ec3c59e 3dcf4f34 3e094028 3db2d1c6 3e2f8e65 3dbf6367 3e396c61 3e3b8c65 3d3cb7d8
body.stage1.2.4.num_batches_tracked 1 48091200
body.stage1.3.0.weight 288 be8fda14 becf17fb 3cbb92cc be3c1716 be3fd7d9 3f162bcc bd6cec13 3ed3eaf5 3e99eb05 3a599584 bdb92708 3e909a6f be0ac51c becb409c bdda12cd 3d8d4356 bdc3a9da 3e337ec0 bdaceb81 bec050d6 be2a98f1 3e85d58b 3f3ff0ec 3e234a98 3df5f5d3 be1648c0 3ded8036 3f0b742c 3f095f26 bea53f05 3ed7054b 3f4c24d1 be0dc8bf bf277ed0 bf1a8e40 3e1f895d 3dfa0962 bec6d827 be1b7a70 3e09f3e6 3f4ce627 bf45042e 3e6a0722 3ec289db be43c80d 3ca38a62 bd6f54ee bd1c37c4 3d4d20e5 3f8114d4 bdeb9c21 3c00d6ac 3e1fc6ac bd27b34d 3e6d80ee bd9726b0 3e6a6c1d bdd63cc1 bf30af5f 3acf98c7 3cac01c6 bec7c40f 3df155bc 3d91a64b 3e903eb7 3e46109f be90985a 3ee887b4 3e51c1f7 bd0d7d4a bf3559eb bddc2352 be2d9c94 bf009f86 3e960932 bed6b5d8 bf51dc22 3eca2012 3d92e0e4 3f12a7bb be3ca50c be422faa be5d3d4f 3de2312b bece7411 bf1c2403 3f4bdb4d bd4924f3 3e48aa82 3df09a59 3e3407dc be9c6bb6 3daaee75 3e88b4c4 bf50f245 3eefb7be bd6fabe7 be0d1a6b 3e96e868 3d619c06 bcdabc01 3dedd918 3d663d2e 3f6c37d9 bf4cc996 3d25b818 bd8f3301 3ddc6d83 bdb5f3fe 3e5b5f41 3d9d808a bf5af848 bc5b941c 3e465ac5 be361d1c bc38b73b 3b0de037 3f14fcf7 bf1b4f20 bd5e3d79 bf0669c0 3ef487f4 3e0a51de bd8a41b1 3dc404d4 3c63356e bd86aab8 bf37c5d4 3db0aa29 3d332160 3f1e34db be128f25 3e11dd85 3f46b180 be67768f 3e3a8e46 3f318b37 3ddfb199 be4bded5 beda7eac be0291fb be211470 bdfc5466 bd885803 3dbe51c4 bf0cabfd bd09d606 3e85c5be 3f22d306 bf31d574 3cac753e 3f045790 be81d589 bd7beaba bda95147 bd4bcbff 3f320a67 3f18546e bd254394 3e5416c2 3e182ecd be08d6bc 3ca1bae0 3f201ce7 3dbe815e 3eda5383 3e92924a be7f575a beecb06f bf299846 bdbb008f bc913b41 bcff4d70 3ee22d7a 3d64da01 3b0cf598 bf6c5807 bbe5f007 3d87c417 3ed6ef29 3c3cca1c be142894 bc650c8f 3d2c0bba bf2b316c 3c71ec39 bd0740da bd5f7acf be654c4f 3d38a570 3a3243ea 3d87ac3d 3bafa18c bf853228 be63d9ca 3d73e3c3 be0d586f 3dd27f63 3d64ca34 3e6dbe11 3e2450f7 3d8653e8 3efe37a6 bcd4da29 bd22c60e 3d737881 3cedd3e5 3ccc6c07 3c0a40ea bdce6319 3d103da7 3f5ecbad bf563d5d 3d4293e2 3e0a65b7 beb014ca bda88aab bd27da8f 3b882c04 be80c726 bee63b0c 3ce75e2d bd1d7c93 3c81d8ed bd75fe40 be18dfca bf106157 be72ad6e bd35dfbd 3f561bda be66202d 3e285223 3e764cc2 be2fa17e beab64b7 be9c0d35 3e667252 be7d048e beffc442 bd466a53 3d33c89c bd8b514e bd627276 3de2059b bf506370 ba7d92e1 bdcd6d10 3d7558e5 bdb76435 3da523be bd17052b 3d202813 3d18b459 bbb7f095 b82a6eb5 be838601 3f864514 bf130779 bdeaaba4 3e3f985d bd418ff5 3bf92c65 be18a8e9 bdc3349f 3e1d6111 bf40acc5 be421338 bab0cf8e bd8a16cd bd32f914 3d23db5e 3ec5eb21 3df6bb04 be06aaa7 3f47fe2d bdec7016 3d1718c5 3c82b246 3d7e640e bb8f2369 bea20cb1 3d0da821 be03c8ae 3f53fe95 bec8881b 3ca400a0 be494c16 3e01a98c
body.stage1.3.1.weight 32 3efc5b39 3c61f73f 3eeef272 3e4b8e3f 3f0fca11 3ee4f71a 3e616f0d 3ef5eb99 3d3a768f 3f3a6a27 3e98f8fc 3f0f09bf 3f3865a5 3e9ac886 3eb972a9 3f1ea239 3ed3720c 3e960bac 3ebc15f3 3eeb80ec 3e90b7df 3f2db77b 3ef6345e 3f7719e2 3e8209fd 3f2167e8 3ea3eefd 3ebca598 3f0b73d8 3ea092ab 3e9171b5 3ea67a28
body.stage1.3.1.bias 32 3ed4f63d 3f26ec4c 3eeb1832 3f11e9ff 3e363090 3d85d0bb 3f283037 3e909b5d 3f8fa87c 3eb02956 bd20f503 3d184f7a 3ef055ce 3f86b27a 3cbf0cdd 3e9c0909 be13bb2d 3f2e2f0e be0e2774 bdd2c786 3f311484 bd426340 bdd02388 3e5a1ce9 3e4ef691 3db427f2 3e23eeb9 3f236c4d bb767192 3f7ea9de 3eafeb69 bdd03658
body.stage1.3.1.running_mean 32 3db04342 bc9d4219 3e73c351 3e8f59d5 3da69283 3e9da639 bdabde4e 3c9b80fc beaa6864 be0017ed bc938b24 3dc2f9db be61d756 3c856e75 3e100e10 bd46e06f 3a353217 3f2a0c8b bb9b3760 3a052dec bd5d1cff becdc479 3e019093 bd734d3a 3d24e2e0 bd17c294 bf6cec9f be6722fa 3dd7da04 be3c43c3 3ee71518 bc03e57f
body.stage1.3.1.running_var 32 3cb3f262 3b5cdfb4 3cf9d049 3dd950e4 3ca2ebc2 3d067fc8 3d36b780 3cff5112 3d6b8659 3c286f86 3ad2c990 3da6e904 3d8d5f90 3c51b994 3d1bfda5 3c9221d9 3ccd5053 3d9cdacd 3cb1bc73 3c0f8ed8 3d46578c 3bbbaf1c 3d1d7621 3d56489b 3b89b9b3 3d2d3387 3cd07b46 3cdd9827 3c170774 3dee4606 3bf8148f 3b9d3447
body.stage1.3.1.num_batches_tracked 1 48091200
body.stage1.3.3.weight 1024 bdd12c32 3e89584c bb13bbc5 3f932b2c 3db06da7 3d02f671 be378ba5 bd16dfd7 3dee4699 bd1e9b7c 3c12646e 3c2ee5f5 3d5fdc38 3981a3bb bd4ff246 3cf36306 bdac975e be73610b bdc6bccc 3d38c7bd 3da0869d 3cbe9df9 be3e916c 3d2fbe09 be9304da bddd2126 beb894d9 bd256ef6 3bec20e5 bd2dd53c 3ca8fdf3 3da342b2 3ce7a0d0 bd42e03e 3e237ce6 3d02db37 3e981325 3d5b4eb6 3c87df9b bea59d72 3e88a944 be73d8cd 3ebde40d bbdd6d42 be0dab4a bdc9a40b 3f009089 3dbd8371 bf26e0a0 be47112d be2f581c 3c1dd098 bd19fad0 bd9fdabe 3a90d0ff be9211d5 3de3a8e9 bed7a885 be090b8a 3dd5badc 3deff8b1 3d1a2cc4 3cc4fc77 be0e54a8 bdcb35e9 3d961dfb 3dc5e7c9 bc9d468d bdeb3e59 bd69cdf5 bcb1a6c2 bd05bbeb bd87bffc be2b98c5 3e0e244f bc82a169 3d69e4ec bdde4308 3d915116 bf2074c6 bd660449 3caf1576 bd8beabc 3d6f9b5b 3db47a06 3ce0cce6 3d865a22 3d6f3ef0 3d36e0b5 bde2dc96 bbf4c6da bf53064b bd1cdf30 be36e973 3f739386 bdd54b6e 3e2ef9db bd95cab4 3e1dcdd0 bc1522b6 3d20664a 3d5b6121 be70a7ef 3d80c937 3e1ca8d3 3e3b2d94 bd7112ee 3d0663cb 3d577cde 3d0ff4b2 3dc43b91 3d1fa308 bb9a6a89 3e5522da 3d7663e3 3d7cbd5f bcfcb1bc 3d80667d 3ea8f6a1 3c62ed30 3e088a74 3ead1818 bdbe36f8 3d0b386e 3d9902de beb0693b 3e229203 3e75bbc8 3e33ff2e be1b30f2 3e05dea4 3d8a662a 3e116274 3e7eea22 be64b896 bd88f26f bcc107e6 3d47d204 bd327ff2 bb79174f be979cfc bc379fc7 3d6bc415 3dd67823 3de4bb76 bea28840 3df6c2ae 3d828fff be86d539 3e52f333 3e7e06b5 be0b4497 bb9d0a1b 3e11f4da 3e040ec4 bcde7bed bd612c72 be129b5c 3d644566 3e302587 be8a3b83 bd45517f 3c0befeb 3beea6b1 3e098dff 3ba1bddc bd128665 3dab6e09 3bd5689a be4b8a8c be090407 bd7d6643 bed7d202 bd102286 bb22d54d 3d8f032d bcf115b3 3d2d26e1 bc2042be bcbb05ab be89ee38 be922db2 bcb5529b bed99f0f bdc8eb8d bd8c8a52 bb83a914 bdf0ec5b 3de3b064 3da27f6c bda41b92 bd8c7fe2 3da3023c 3d7416c0 be9ea1a0 bd77a0bd bebab4a7 bec11a40 bc4daee1 3f113a91 bd25c1a6 bf430f24 bd436f49 bcaa0c23 3e5fd3a8 bf030181 3cac6917 bdbab7ef bc0b16fa bc8bd68e bdcbc434 3d866075 be955ea0 bde30471 3c06b9e7 3d932801 bd220ee0 3d4cc49e bdc0a0e0 be8b19e8 be6d93d0 3e04976e be991e57 3eab7f74 3e8d78ee bc0929d2 bd456765 3da23f60 3e6d397c bda2b9f9 bd48e526 bee38a82 bee7d495 bdbae44d bd592b43 bd98faf7 bdfda009 bdd6edc1 bf05a28b bdb7176e 3ec8e071 bdecdb38 3e15c6de bcd59f8a bad12487 be10c585 be2649b6 be7fdecd be1b56c3 bed80022 3d62b595 3dd8503c bd95ad50 3dfebd4d bc2c6822 bd8b695d be18a666 3e4989db 3cdfa652 3f5dd705 be2355af 3c1931be bb1ca0ba 3d76f247 be2c352f 3c96e775 bd93b0fc 3bf0df5d be0473cf bb705683 3e26c3c2 bcb96038 3e8156d7 3ec760c6 3c85bc55 3c77197a 3a3daf3c 3b378560 3dc7d609 bd19a494 3df6fba4 bc682d55 bf156394 bd196db6 3c8c5e6b 3a7e49a7 bd97fe37 bcbab238 bd9368e3 3d0c0a1b 3c5416d3 3de697ac becb2dd5 bd8d61fe bc3cc8f3 3e517d3c beb4551d 3e2067f7 3e6aba08 bd4afb74 bc88d81f 3d4b7884 bee0f2f9 bd5613ec 3f0f2683 bcaa0828 3e505342 3c837257 3df81eee bd0ee1b0 be122d49 be33df47 bb1bc7ff bd47cc09 3e2bfdf2 3d75999a bcda7b53 3e38842a be08e966 bdd33ba6 bdfdb2eb 3f06e4c1 bddabca2 3d96a41f bdcd596a 3de4f187 3f1e8212 3cf4a4a2 3dbe729c be093f55 3e301def 3c9a9db0 3b26885b bd1ec607 be02cd49 3d278e32 3d88bfdc 3f6bd72c be1f86a5 3ceac2d6 3e1f8612 3df5dd94 bef7d070 3d0a2aca beb9b408 be3085c9 be468c73 3cbb3ceb 3d80f3c6 3eb3f350 bd3f373e bdf267d0 3c2186bc be48778a bdf54667 3cd6e88d be51ead8 3e11a4e3 bea56311 3d4c7b87 3cd4a072 bd5350db 3bb12d89 3d84f85b 3deb32a9 3d35197a 3dc26513 bd315e91 3d3639a2 3ec24457 3a80ba8e 3c250b6c 3e45317e 3ddca109 bf1a0ae5 3e80b081 3de4a031 3f5086fe 3de100bb bdc555f1 3eaadc96 be7303c5 3da2b2dd 3eccde82 bdfcfe9f bea7f716 bd40667a be139ce2 3e8d856a 3f2901ef bd10f530 3c3ae814 be6a1298 bd89effb 3efa8ca8 3cae5e26 beddcc2e bda30add be44fab1 3db9248e 3c0794aa bda5e61a be2e9732 3daaf487 3e91e815 3efca2c8 bdc6ee1b 3eaed455 3e2cb16b bd805dcc 3e0d8b68 bdd9936d 3ef78e5f 3e15fb7a be0969ea be08053f bef38680 bdbf7ef1 befe517f 3d32bf91 be469d8d bda3cbfe 3d7f3c59 3ea77d2e bc400aa3 3e382a56 3ba65808 bd9de86c be3a3fd1 3c420de6 3d1ecc63 3d81502b bdbf9263 bd574a90 3c1b6d2a bde620ff 3d89c2d1 be1ee813 3dd2cf5c be48f796 3c705bbf 3dbc2abd bcb41552 be7171ab be36cdfc 3d415b63 bddb66a8 3dc52c78 beadc395 3db293a6 3dd4d541 3c41bd63 3f0dca17 bd9755f9 3d9b610a 3c4b5717 bdfd724e 3e2fb49f be1f0aee bd8b4775 beb8f661 3f0dfd67 be014f20 bd91a968 3e151f4a bca29db4 bded205f 3ab9f418 bdaddab7 be8fac96 be29890c bf204e4b 3e00877c bed51f15 3dde8de1 3eb65b76 be2a2a62 3e8209ae 3dd2daa2 3f0452fb 3e8fcd3b 3e03c1d3 3f5dc100 3b8a3614 3c85fea0 bd751991 bd698ebe bdaf4349 3e1569bd bda48fc4 3cb73721 3b932750 3d92a785 3da052c2 3c812ba8 3f76a2dd 3d581f41 bd900d3c 3e1733cc 3da74a04 bcb7fcad bd937a13 bd870e62 3d2f8900 3e37ee9b be664282 3c5b6ef0 3eab9410 bd24dca3 3cd16e75 bd73af85 3db75c65 be40b0de bc077cf6 bf3fd936 bd5c69c7 be25579b bce9ab4f be0a73ea 3d9b58f6 bd2a06b8 bde97552 3db13d4d 3e6b7fd2 bd92f2cb bc903de5 3c2010ca 3e9f153c bd909cd3 3e1a1800 bd5bf0f6 bd1c35c5 3d0fbe7c 3d9651f3 be496a8c be379ee1 3c867fba 3d2066d8 3d76d8e7 3eee7ba0 bd7e59a6 bf768492 bed181ff bd9ae9b2 3d36f3a2 bab8cc32 bd66560a 3da73c57 bdf99042 bb6f7272 3cab7309 bd6ced12 3baeb639 3db27aec bd6ada27 3ecf2a97 3e33e8ac bf3ddd78 3c9aace2 bd06094a bd593e63 bcc1cd1e 3c967e1f 3f843396 bd188d73 be4412e8 bc2d8745 bc6b2ee9 bd4cf93d bd2c4a51 bb0c2f4c 3e770b75 be932215 3dddeeae 3e4ffff5 3e1cf711 be790af5 bd147167 bed33b26 bd48bb00 bdba0e39 bf001044 3cfa2d3c be5231e9 3c87abb7 3f2ad533 3da6a985 3c2212f6 3d7df361 3f513a89 bcc60bb8 3dc23493 be8bd876 bd62cab9 3d80b51e 3d9f1cc6 3f09bb77 be014dee bd8b7014 3e0774f0 bd98eaf3 bd379320 bcfda325 be3cfdac 3ebb74f4 3d8cc318 beb9f491 3e8f1eb3 be139b97 bd5421c3 3d402928 bcf73f18 beadecf2 bda6aeae 3c9f8c8d bc57e9d7 bc9a4384 bce8d0fa bb911698 3d0f22e4 3ee90629 3d593b1c 3c3d1712 bd9ff839 bd79783d 3e92bac3 bd718035 bc9d9c21 3e074162 bd6477ec 3dfc54fa 3eb62d7f bd9e9720 bc6a2f17 bce0e011 3d0c942d 3c63cd5d bc76678f 3b0d0219 3cfec55c bc9815b7 3d841e2b bd0faaab 3ca581ce bdb1819d be27e169 be008cac 3adde33c 3cf2f6f1 bdf10401 3cb826af 3faecf5c 3d01f7b3 3d2ede9d bcb2525c bb9fddf7 3c4cd7c1 3d901dfb bc7938e3 be5a83ca 3cac7830 3c1ec394 bd522209 bdc9ff3f 3dbadb18 bd286876 3d3bdd85 3a90ccc4 be4e4f08 3eac5770 3d9b8aa5 be403845 bd9bbc79 bdc12d03 bb106054 be9bdf47 bc85f8d4 bd73890b be55b7f1 bdbd7940 3f439da7 be0aa15c 3d5e53c5 bd03d6ba bc4df266 bcd98dd1 3efa3d44 3c2ec737 3ed75075 3da44fce 3f38f27d 3ca6f8a3 3cb4900e bccb40e5 3bdb512d 3d9b6101 bf0ab700 bdb8350a 3ec6254e bcf41d13 3be2fad4 bce4e6bd bd6eb421 bbfefd8a 3f0f67a7 3d7e12f8 bd21cd6d bda75a96 bed8727f bd84b5a4 bcf3ad80 3e8eda66 bd8da4d3 bf304df9 bd563970 bd36c155 bed02ead bd94c8f3 be02969c be5bc2cd 3cc0e658 bcc38fe6 3c73498d bd9dbf87 3d0c1b55 bec0914c be1f2f7e bf16a448 bbdde4e4 bd053ae0 3d8b2618 3d78bee7 3e537f53 3daea81a bc1b674b be8d8279 bebc5fae 3d8e1a26 be0f50b2 3d8719f0 be52098f bd1e789b bc7b77b1 3e4f9b2e 3d3e82c3 3cf61c3d bc167e73 3c49d062 bd1fee66 bcca7283 3d061ebe 3ca2517f bd2107a4 3de0ab48 b981aeb6 bd16f3ff 3d1e7b8f bd8f0313 3db28d5c bdcfa3be bd15e5e3 3e36f8f8 bc4ec25e bd8a3329 bdfdc450 3e33a361 bb95d807 3de4dea9 3e7de7b6 bde9759b 3cd49e90 3c51b0a4 3dc7d846 3cf64bc5 3c9cad7f be1606b7 3e8bf3cc be404e6e bd922502 3c21e4d4 3db2d446 3bf08102 3d1574b0 3dc95ffa 3d49a83b bf837bc9 be2144da bcc7a63f 3d3b9a7f 3c95fc03 be2c6ef2 be0e42a8 bf08e219 3e5d169c bf4f9018 3cba6641 bcfb7cd7 bc996b08 3d8ae551 bd7a19af 3c8f4a12 3e02b1af bc280233 3ed31b6a bd4ef2d7 ba6df9ec be1c098e bd56ff89 bf5500dd 3c27cc05 bdcc969d 3d0a76b2 3cc2eecd 3cb135a3 bdc80a35 bc101062 3deb49d1 bd2fb2c1 3ecba165 3d5effe8 3c26f370 3dbb2fd0 be08fe82 bbd5a4ef 3f3dcfaa bdfbe7cc 3dca4388 3ccdd1e0 3d11b0c5 3c59c1b2 3c2c47a6 3d2f4b72 bda69775 bd111ae5 bdd41d9d bc0d973b 3bf3d386 3e84e046 3d32c4c3 3c613225 bc92e9a3 be29522e be5d5775 bc65a2d8 3f2a0996 bd35d095 3d33b5ea bd62a7d2 bdf5c5ca bc0cec7f 3c9fe102 bd26a301 bd632e20 3ed8fe50 3d918eff bf904e50 bd5e5b95 be12db47 3de78ddd be14cad3 bdb16668 3cc93b6f be18b2f5 3c228910 bef9c191 bd43afcb 3cd1cd18 be8af789 be978d98 3d675615 be38c42f 3e88a040 3ec43c7b 3dbafd2e 3c1a37be 3d94323f 3e138762 3d2c216a 3ec6a5ff 3cdc43e8 bee845b6 3c85a34a bebfe38c 3cb8036d bd88ad99 3d8c9913 3d993851 3e628e02 3df542e3 3dc92699 bda28985 bdc6c6a3 3e2fdaba bd57a7b8 bd9a25ca 3df448e0 bcfc3faf bcf538eb bcc4744f bdb564b0 bebc97af bdbf74b0 3cdbd6a9 bd975826 bd8d664c 3c9dc3f9 3d98ba5e 3c2f8f04 3f24c7f6 3c81a47c bd5b1a62 bd78cdda be4e57d9 3d786c3d be44ab82 be4b0920 3e99d3ee bda2e9f3 3d1a249b 3ebacd81 bd8f1e6a bc357ce5 bddeb5aa 3d02ccc9 bd9f79cc 3da08053 bddeaa61 bd73af0c bee48cdd 3e2c1037 bdcc9433 bbdf30fc be6ca173 bd25343b bd6ddbf7 3e9c1d5e 3d908241 3dd8404d bc5a38fa bc9dba79 bd91f7db bca71a03 3daf0c12 3d11c5db bd14f682 3e0d1e31 bd2b3251 bc224255 3e489d12 bcb3e74c 3e53dd60 bd6a8187 3dcf98c6 3d8f2130 bdab33ab 3cfe93fb bd72d0fe 3ed79367 be844b8b 3c58bf00 3e3126fb beacb018 3e06039a be636137 3e30b5c4 3dde07b7 be248f34 3e4c1ac3 3e1d2f63 3e8d8c47 be1c1542 bae75f67 3d01326b 3d9a99e5 3ce38894 3e22a329 bb8a3e89 3f3e7aa0 3cb87322 3dbf1734 be9ac674 3de7a056 3f36773e bdd8799b be4ab07b 3d4c7ac5 beffd365 bdd6e06a bdc99e1c bee52b48 3e2092b8 3ceb53cd bda7e017 be435529 3c67dfab bc823a58 be2333aa bf961b24 3e480ec8 3d6d36cd 3c8069a1 bceac1b9 be50237b bcaa894e 3e6b82a3 3d4f1fe9 3d23c62d 3c894e18 bd5d5358 3dbca205 3d029928 bd97a8af 3eb5fd4e bf375156 3aedbeb9 bee08e72 bd01eec6 bd30faac 3dadcb50 3cd1cf78 bf328da2 be1ff38d 3db3866a bd83c12c
body.stage1.3.4.weight 32 3ede8296 3f1af036 3f09736e 3d884565 3e30e91d 3e9e10bb 3f0d3094 3ee9b6f2 3eb8047c 3edb0608 3e9cab30 3ef6ced6 3eed1a29 3ebd70ba 3f1e3a6d 3eed5694 3f0f2db6 3ef8071e 3f1613d5 3e7bc90d 3f3acce0 3ed17c4c 3f1bf331 3e21d9b6 3e2d9d58 3f13b3a1 3f0fe41b 3ef4281c 3eae565d 3e46fc52 3e8f2926 3eaf93fe
body.stage1.3.4.bias 32 3c3b5da5 bce76caa bbaf5b36 3e607835 3ebfcca0 3e2ad108 be4a7cfe 3e3304f3 3ea0ad65 3d122753 3f117887 3e28e331 3e22488b bd52b519 be0531b7 3e4e5217 bcedbea5 3d0fb7e1 be1e081a 3e5370a3 3dbc6122 3e15d0be be69707e 3e617265 3f1fc07f be14822a bd4b0e8f 3d2a415e 3dc43965 3e94926d 3f0ee8ac 3e7f2a56
body.stage1.3.4.running_mean 32 3effaac9 bdbaf44e bf4c5d29 3eac0753 bf242eb0 bf587110 bfa34c6e bf710c63 3edda471 be10693a 3fcd0813 3e1b7d6c bed0ec8e bf1ff8fe 3f0f050d 3fb00f38 bfacd390 be9f6ee0 3f7529d1 3ef3805f 3f002930 3ebd5f17 bf36f020 3db9223d bf146a97 bf0826e0 bede8803 3ddb52b0 3ee28d55 3f08bd27 3c104fa1 bdb74a28
body.stage1.3.4.running_var 32 3d6d01aa 3eb65680 3e45116e 3e0ca04e 3e0adefd 3e700c50 3eb9138c 3edbcf4d 3da811d0 3dcf126f 3e38c0cb 3ee28e90 3e3ff47b 3e8abf0e 3f0e6171 3ef25582 3e7f6950 3e4e49b4 3edd5c13 3e6d04cd 3eab8d8a 3d97d50d 3f3e5f7f 3de308c3 3e87860c 3d97600a 3f018c67 3eb1013e 3e9e24ff 3e17a6bd 3e587e0d 3efbfb80
body.stage1.3.4.num_batches_tracked 1 48091200
body.stage1.4.0.weight 288 3d5b0a65 3dada94e 3dd4f37e 3dd0d700 3e952516 3e87349e 3e07c31e 3e8bf5ce 3e844f04 be099f5c be22ba50 bde84d52 be632757 bea3f7c4 be694fc4 be19c8e0 be675661 bdf6d10a 3dbc196b 3db947d3 3de00497 3e644e4e 3ed81419 3e95aba6 3e857492 3ee34658 3e958682 3e269bbc bc74b9d2 be38ad37 3e854a26 3d944332 beeb9906 3e4b244d 3df4f0d5 be8fda58 be5bb606 bdec1e2b 3cad3056 becbb317 be175de5 3e425782 bea221b8 bdeb6d8e 3e4e842f bd17b07f bdf47d8e be4be7fb bdd9d422 be7a4f41 becf850c bdf0928f be3296ab be523842 3e0f4523 3e554159 3e0767dc 3e74079d 3edc3b93 3e951fc3 3e2e777b 3ebd454c 3e7d6b8b bd5da2d7 be3da674 be6633be be2cf854 be906b23 be668f3a be57e6c2 be819252 be0a4b46 bda2ae9f bdc55ca7 bd3c2249 be03360d bea09118 be843d58 bdaea1f4 be804312 be420d14 bdb5c936 be1d7d84 be0c3359 be4633cc be70663b be4401c1 be496820 be47c949 bdbcb81f be277d99 be124104 bde9903c be8d9816 becb158a be89eef0 be53a500 be92325c be8d5474 3dd9d5bc 3e8208ab 3e5d2e18 3e4cade9 3eef94ae 3eaf3e2c 3e0450f5 3e9e3738 3e78e0fe 3e220d15 3e6a4ae6 3df0f694 3e6911e0 3ecbd26e 3e6d4300 3e36cfe0 3eb7f990 3e5e9ac5 3de0b2f9 3cb3aab6 3ddbfd85 3e44ca6c 3e7922cc 3e72ab12 3de1c03a 3e5ad023 3e7cd4c4 3e3a1991 3e7b34bf 3dd45d6c 3ebb867e 3ef3a1f8 3e8a8ffe 3e593f8f 3ea7f1b8 3e5e9a32 3e61711c 3e355460 3e099326 3ea14ce5 3eeaca32 3e9f50e7 3e4105bd 3eafdb99 3e850d5d 3db36d05 3e0a72a7 3dcbe058 3e82c5c9 3ef47868 3ea40683 3e208939 3eac7f96 3e7a3069 bdd1f55a be420800 bdf7782e be817fa0 bedd48d6 be7ad2c9 be3ec697 be92b5d1 be075a81 3e319b3b 3e938243 3e3fcfa8 3e86a655 3efdb981 3eb5ccf1 3e42f568 3ea9b114 3e64af9d bd6bfe05 be7e7aa1 3d9d8c59 3dcfc127 beda9337 3e6728d6 3decf7da be669cb3 3e706a06 bd45535a bdec1b2c bde66429 be9239ec bed8ae93 be20d54b be062cc8 be9328f9 be0440c8 3dba94b1 3e3670c2 3e164b59 3e557923 3eab854f 3e89a983 3e2babb6 3e7e092b 3e6e2b84 3e4b41d5 3e7bd207 3e43f402 3e96d45b 3ec9d086 3e8e6e84 3e3ce076 3e8d012a 3e39e152 3deb313e 3e809a17 3e2f1c05 be1bd8c9 be95b67b be562a27 3d7f62f5 3de48779 bd5b9317 be1e2ea9 be20364f bdfe2249 be7cd05c bed26036 be8550cf be17afb2 be857af3 be519aa4 be13c379 be7eda2b be094d1c be1abb58 beb0d517 be536e78 bd4e8c55 be4a765e be4d78d1 bd8df46c be20ee43 be12beb2 be302e7f bedcf293 beb18b4e be1ed80a bea76dee be930e95 be489043 be47d917 bd9dfb3b be69f39d be4eb39c be5a6a33 be110b20 be49c225 be4afbd3 3d8880b0 3e61bacf 3e0c107b 3d9cdb3f 3ec3147a 3e3f8009 3db7f91a 3e94a893 3e502d10 3e138e9b 3e5baf2f 3e00c66f 3d957603 3e80d00f 3e519107 be7898ef bee4f009 be97c387 3e43f8c7 3e019bc6 3e3aca27 3e694f75 3e9c903c 3ea087e0 3e830b1f 3e930328 3e8b4d26 3e22d13e 3e1bb52d 3e214e9b 3e678d89 3ea68d22 3e9a1798 3e319db8 3e69e952 3e63dcb2
body.stage1.4.1.weight 32 3e8fba98 3e907a64 3e4c861e 3eef2f18 3ecbf5cf 3e9ff9a5 3ef04108 3ea78f90 3e35f560 3ed125a8 3ec3ca39 3eb12274 3edf64fe 3f196afc 3ede623e 3f0fb4cf 3e52a82b 3e994864 3ee499f6 3eced114 3fa8c85e 3e37cb86 3eb6ac0f 3ea3b6a4 3efe4e0c 3f909c71 3e4d8273 3ee95382 3ee4cff6 3efa5fe1 3eef282f 3eb72ee2
body.stage1.4.1.bias 32 3da4daa3 3eb457a8 3ec1e7c9 3c82db91 3d1fa666 3f324359 3f11a2af 3e94981c 3e7f3612 3e319c04 3f6a5662 3f2b148a 3ef914b4 3e09035c 3ef20d02 3eccb5c0 3ed279e5 3f7a576c 3f07d9cc 3e8ce228 bf3f54d2 3eaf2ae3 3f1c3834 3b08c81a 3f50b8fd bf263eda 3f1b3f27 3edd7f3d 3ea8b697 bcecd868 3f88a8d6 3f4a859c
body.stage1.4.1.running_mean 32 3e45788c be827d84 3e9d7e18 bcf3ab11 bea750cf beb38e9e 3dce867e beeac9d5 beff8edd be53a421 bf9eaabb 3ef940fa 3ec3ced7 3dd973c2 3e3b2035 3f1de35b 3e8f0b67 be7c4180 3e4852f5 bd62f674 bea4969b 3eafc2d7 3d760e95 3a1fbf57 bf9c2b10 be38bbd8 be42a3bd be73c20f 3e8569bb 3ba21180 3f99409d 3f13d7cc
body.stage1.4.1.running_var 32 3e3d2ff0 3d981ef0 3e81fc36 3aad1481 3cd30fc1 3c8fce66 3ddc08fb 3d87de89 3e1ca56d 3d9a70a0 3e69579d 3ed71439 3ecc6bce 3cf327b6 3e17c5fb 3ec07f42 3e572b6e 3e493ca7 3e90f41d 3cf9141d 3edad7c9 3e94310c 3d43122b 3bdab530 3db7c2db 3eb9acf7 3d8543ef 3e06e03c 3d88e37c 3ce292fa 3e893eb0 3d788b50
body.stage1.4.1.num_batches_tracked 1 48091200
body.stage1.4.3.weight 2048 bd9a6534 3c25f1e7 bd22e9b0 bdbc710b 3d641879 bc9464ca bd52fba4 be10575a 3dc8e13a bed40b07 be235571 bd61edff 3c8de5f0 bdab650e 3ca58ec7 bdbb1000 bc530364 3e062d9c bd9b2f13 bd56aa4a 3e142f7f 3f4dc2cc bd288717 bcb68cc7 be4da23c 3dbb2219 3d763f8e befe2f9c bcda5142 bdee529d bdb41320 bd110ed8 bf32ba7d 3dceffe8 3e128fef bd00f042 bbf1e91c bca9abe6 3d8ff219 3e06eb0a bc989544 3ded3132 3e4df90f be166bba 3c01c6db 3e44064d be18211d 3e39a1d2 3d7a29e8 bdb47413 3d09ce4d 3a819612 3dc5f8cf beec8037 be46ff9f 3bdbaa4c 3d4aaf02 3e30b4fc bc437978 3e2dc77f bb98d131 3e0c2ca2 3e49082b be1dfb17 bcf36ade 3ca079b5 bd9b0ad2 3dc3eb48 3daeb139 3dc115fb 3d856243 3dee30b0 bd3b3e5b 3cfce086 be996b84 bb25cc9f 3f18f909 3cd85b03 bc95ed08 be0084b0 bd390475 bdb2a237 bcc3e92e 3cb4f195 bce17576 bbf8c8f1 bd8654d4 bd35f6c2 bd6ecfea 3d3222aa be79be88 bdef23ff 3e6a152f bd78a135 bdcfbd54 beda0850 3debcf89 3e411e94 3cdfb151 3ea01020 3e30fc78 bcad5c00 be5f2f77 bd930e3c 3bcbb91a 3ea3179f be9390fd 3e272dd4 3f0d7e5b bd37e068 be5aa388 bda852c5 3d124941 3e6594b4 be09358a 3d90ad39 3ec2e0a0 bdba2899 be1d912a bd264980 bd109169 3d29e4c7 be1c54b1 be0cb625 3ea1474e 3c9e6436 be44b336 3e041d37 bc04ef67 3ce86c1d 3b498837 3d2b230a bdeacdd4 be9ec028 3d94dfe1 3c5475a6 bd243822 bc4cfba5 3d5035df bd009735 3d992b8d bd3ea652 3c8b847f bd0e024c bc8d2342 bd518911 be027a8d bf0ede78 3d4fe9af 3be21e70 3ce61690 bb3b0313 bcede930 3ce4fe9c bc9f086f bbc9c442 3c8cfe8a bcae1078 3d0cbd2d bb5b4509 bcfd6815 bdba6c55 bcc2ad54 3d080dbb 3d8d208a bcff31f9 bc1aaa4c bdc300c6 3c1943fa bdb3aae0 3d0616c1 bd3c007d 3d5bc5ab bde79073 bd477e62 bdf54a1a bd20373d 3c024402 3c459fe2 3d5f73dd bd117f63 bd94ecdb 3e4ea6f6 bab1c3dc bdb956e6 be065bef beee591e 3d1e7ca2 3df28b92 bda0d37b bd5a6f61 3d998c4a 3c3375b3 3c975b66 bdf16a32 bd0e3812 3d4e8061 3dfde0d2 bd8681c5 3d3ad819 bd76a429 bdb0724b be78eb47 3d7c4985 3f2b4700 3c597bb0 3d9516e9 bdac5630 bdeababc bca2e0a2 bdaf7f74 3d53cbca 3e41ce31 3d88881a 3d8c298d bd12bd8f 3d64d992 3cabfc52 bf5a1488 3da08c12 3e42c991 3c0adf19 be3d28c6 bf43727f 3d8cc63d bd1b52f4 bc7aaab0 3c3a326b bdc4ecb9 3c9f38af bd9e0d3f be48b82f 3d7783fa be5c034b 3e66340f 3c4c0f4b 3bf16002 be14e609 bd21236b 3cb15fbd bc13ed03 bd65dfe2 bd479af5 3cbfa43e bd404391 bd5e526e 3d12302c 3c7dbd32 3f1d5bbf be8a6aa5 be11218f 3e8ca7b9 bcef8971 bd2383ee be776f9d 3e054fd8 bd0a7771 beb2a677 bd475a86 bbf9ac9b bd12a7f0 3d32973c 3dc40518 bde6a210 bd110983 3e31ea4b 3ea992e5 bedf44ba 3e372aac 3d55f72d 3cb6133f be05e2c6 bd7cb49c bcf7cbf5 bcbdcf15 bbfce0d7 bbd17d88 3dcf82f8 bd981fff bba58b04 be0ef622 3e09964e 3c000920 be00c38f 3dbd299e bd1e142d 3e8b97b3 bd4f5b2a 3e058bb3 be1dfc9a bbb1110d 3d8fd0e1 3df40629 bd0077e3 3c8191c5 bd42d029 3e193791 3ea956bb 3e935746 3e089506 3e7e9b5c 3d2a3014 bcf55704 bd9e8207 bc9f6958 3b875090 3cca6ee1 3cb4cef6 3d2709af 3e389804 bcf577d8 bdce48d3 bf0be70d 3d5b734f bd3535dc 3dda41ff 3d6ac81d bd4d681f 3c0ed66d 3d9fad57 3e6a35b5 3d45b005 3dfa0152 bdc80fa1 be6011ad bde62ed2 3e1d1f87 3dceadd2 bc1f3486 3ad6f862 3e6999e8 bc8b4a7c beea859e 3e49d5d2 bd921e38 3ea94fb0 3dbe463e bb593645 3d1239b6 3b05e997 3d8ab695 bc2df809 bdaaea5a 3d326032 3d72e61a 3e6c173d 3e87b8ac bcb2787d be37f53f 3d763ebf 3e8125a6 3e356f38 bd797456 bdc7c58e 3e283ca5 be177f2a bdaeda32 3c377376 3db88f03 3d7844bd 3d5232f1 bdbf22ae 3e5f6199 bd388d7b bee9cef1 3d680209 bb97ecc2 3d87bf68 3e145950 3df2267e be3a1417 bd45608b 3d4e0548 bd9f658d be27f30c 3d3cf780 bcc2b86c bd5b1972 3e48b90c bd317834 be9e44ef 3ce03955 3e056275 3eb26294 3c4c7f2a bd7318ad bee6edd9 3d545a2c 3d940bc1 3d62c6ad be283e6f bdeb63f7 bd29bcdd bcce82a3 be7f16f5 bdd097c6 3d92618c be2e688c 3d69a0c0 bec11616 be99a1b1 3c80e6a9 bdedcbfe 3d0a5ac5 3d1b0ee8 3e11de75 3d09bc66 bdebfad2 bc1fade7 be0895c6 bd6c388a bb425ea9 3e336710 bdf0bd73 bed21466 3ba4bd48 bb93dc82 3c7acb48 3ee27bd2 bdec284f bd7cf759 bd49ed1a 3d20a377 3ca30e61 bd16ebb4 bcae6af3 bd277bb5 3cfdac75 3d094255 3ccc8a0a 3de289cf 3dd48519 bec23703 3d084285 bc5f693a 3af25657 bdc3a949 3cf7b88f 3b4ae595 bd67ca8a bbe679d4 bd23de25 bd974055 3d477cb8 bd1a9a1b bcfd37bb 3c1c437b bcaa1a9f bca5ad8b 3d08a7f5 3d887054 3dc693e2 3e093ddd 3cf68b9f bdd4b136 3b95b12c 3d1fc5e9 3c160db6 3c6f79af 3f309185 3dc0bc9e 3d53d4d6 ba4a2595 3e3247d1 3d0200fc bd9cd35a bb897224 bd8546f8 3d336a34 3d036399 3cd2bafa 3dc903fe 3d796bff 3de6472f bdac791c be0a8166 3c7f2bcf 3cac24f6 3e3a78dc bb95bf3d 3ee8371e 3d98e57d 3dc744c1 bc819fd9 bd5f0a3a bc4d5d00 3d74739a 3e0933af 3eefd340 be20a007 be8ecd4e 3e3660fe 3d2d2ad2 3d09f387 bd47886e 3e04810b 3db4280c bdb62c69 3c6ac3b1 bcbe5b7c 3d1ba017 3f834df0 bd95b391 3c772cc8 3e3f5443 3f02fb50 bc70e82e 3c9386b7 3cc188ef 3d412219 3e2229f3 bdc9284e bda748ed be17f462 bd2f9007 bdd527a5 be039421 bd275e6c bdd386ff bdb06333 bc14ba62 3e5e761a 3f02d479 be3409db 3e154fc1 3d9c15e8 bd8e03e1 bd08d48b bd7141d0 3a6d0997 bdc951b0 3b8c060a 3d80b861 3e314c2f bc9543d5 3c8c5851 bed3c746 3e9d8028 bd5e3274 bda385fb 3d14f362 bc76e997 be3763f3 3cb34296 bd9a6555 3d1e325a bc9e8768 3d8f3cba bd10f063 bd4b5eca 3eda9e12 bc95d840 bd26319b bdae282c 3d992d06 3c137e13 b9f51801 bd6cc56a 3ea23b45 bdb2018a 3d400289 3dabf5d5 bec5a311 3d0f721d bc813abb bbb8d510 be70e85d 3cc5f2f2 bd83293c 3d74a1be 3bd87b4e 3c0e8b70 bc2ab0dc 3c676eef 3e068fdf bd880635 bdeb3823 3e9a28f6 bcaaae0e 3deff866 bd07c585 3c8d3ba3 3d8ee49a bd81cc20 3ecb168e bd151f59 3eaaf7b7 3e826379 3e300bb1 bd81a642 3e16be88 3e33c552 38c25e39 bc4ef7dd 3d9c4083 bd0491c8 bd59ca04 3d88508b 3d311bbf 3d815089 3f906926 bf341284 bdf7860e bd0d39e4 3d720b6d 3d97f6f0 bec8b4c6 bda16727 bd254ff5 3e133488 3e1881af bdaef5d5 3ec3f1d0 3e4e79a1 3ea1965a 3e48990f bdfb97e9 bde6dfaf 3b7f7e3d bc2d77a0 3efa2313 3c4ae45b bcc23d58 3ec2966b bd9221a3 3e58c4b0 3f0ea4a6 3ce28e10 3d66d3f6 bac8d3ca 3ea345fb 3c8e651c bc9e5e1b 3d541343 3e34c31f be29da75 3f05b1df bc3faab4 bd83f196 be8afb29 bdbceab8 3debefe0 3b7b6b7c 3d2ae388 bdcb57d0 bcc347f8 bed150fe 3e03333c 3da93d78 3e3c4ecc be22c355 bdb720a4 be2e263d bd150b2d bea700ae bd88a630 3c8e5d80 bd9f1507 3e4a11d1 bcf93c9a 3db15351 be063f4a 3d56e73e bd865447 ba733cb3 3dd80190 3d9a6568 3df6bd31 be449290 bd968df9 bea3d231 3e1f940f bd957878 bdda3278 bdd59fd3 3e165a9d 3de7433f 3dedae98 bdb71530 be95f7ec 3e28db98 3e88e06b 3db7a0ee bec55e7f 3e41d704 3cd70a9d 3d77c809 3d5d84b4 bd8b4163 bd58f501 be179fb1 3d42aad7 3c10689e bd1ccb55 3c811f7b be2099f0 bdbc9f33 bd4fd77b 3def05aa 3e6a0245 3ded7d68 3bd6b6a3 3bbafd03 bb75cc7f 3cccf361 bdf18266 3ceae6d6 3df8f2cc 3d4bf795 bd23b3f9 bdd2644a 3d8dd4ce 3d63bbf2 3da703a3 bd8b5d63 3e94e2b0 3ea4d757 bd219eb8 3c879679 3b7f60a4 bd10539e bdee99be 3d91bfc6 3ccfa870 bd4fcca1 3d0317b3 3d4f9d78 bcecaa0e bcfb940d 3d44dece bdd8c56f bdbb3af7 3e2ff99d bd04ef89 3f0bde1e bdcdd2f0 bd7131a2 bbe0f3b1 bdb975b8 bd2e3607 3d614da7 3eb6e6b2 3d63f69c 3ebe6d5c 3dd01cc3 3d4646a0 be21a77c 3e25cc56 3d4e1cfd 3cc0417c be46fe43 3db975f8 bcdec7d6 bc5f520d 3e1b857a bd7feeed 3d7ab146 3d0cd412 be5f55f5 bd446fd0 be05d7e1 bcb63250 3da96237 be93c23c 3d89fba8 3d492738 3e1621d8 3d3007d5 be80dde9 3e69f5f7 3af00df0 3d0882a4 3e14ddb3 bcc8930c 3da3eaf9 3e3d8e43 bda650d3 3e164281 bee91168 3cebc70e bdbc598c 3d964ee8 bd78ecae bde95232 3c9f67c2 3e3cd690 3d9933d4 bd46d511 bcdcb149 bd2ee6a0 be3547c7 3d209789 3d896701 3f10e94d bc93eb49 be3692e6 3dd64dbb 3d3a128d 3e35771e bb2d8b65 3d8884db bdfcafd8 beba15fa 3de7b23a bdfc17a5 bd7df6c5 bbdafcfe bdd271a8 bc701947 be2982b9 bdd56ac2 bd61a7fd 3d360851 bcc52dd2 3cba4424 bdbd80d7 be94b7b4 bd288ff1 3eefd0d2 bd0a64ac bae3a61e bd2b8fd1 3f2fcfc8 bda23d80 3d2e96f3 bde597de bd8994a2 be356e09 3b8902a4 bd3aee26 3e550474 be11db26 be3730d6 bf7b429a 3e0be4a7 3e70d4c2 bde03c27 be235dd5 3deef1c9 3e3cf3f2 3e0280a2 bdd3def6 bda20ce2 3f2706b5 bdc284f7 bc68735f 3cf1c042 3d751d9d bd976050 bd0ae3ff 3e69d442 3e10521e 3e3b83f9 be5ebbbd bd466764 3da97d40 3e0fb044 3d272577 bdc5a0f8 3e9c93c9 3d837c1b bbb82f89 3cc19462 bd7c7b15 3d42d28a 3d578b82 3f8779cd 3d268a4c bd7ebfe3 3c728542 bd829387 bc4e88a8 3d05b5b2 bca761a1 3dddbaf6 3d32a04c 3d60c4f5 bcb8c5dd 3dcf02f6 3e22d74b 3f847d4b bd6e61dd 3ce47ffb 3cbaa851 be1889fb 3cb3faa8 bd128481 3e1eee4a bb3c4264 3c5da6fe bdd7ff63 ba6b956f 3c5ecaa2 be0bfb07 be27b1f2 bd0f41e7 be92b79e 3e287cea bca50cdb bcc25f79 bdf08665 bcf15cc0 bd652fee befcab07 bd681003 bf041b94 be04994a 3d952075 bdc03437 bd01fc58 bba41b3f bd174fc0 bc8dc3fb 3c38d82b bce2f33c 3bb24af1 bd11c80c 3ea90ed7 3da992d5 bbb39bad 3e83d735 bf088a2b 3c804e80 3eb480fa be382d13 bd8c91ae bd03575c 3c1f90c9 3dcb398d 3cb13bf0 bc824b57 bea0b4f3 bc8b09aa 3f51739c bdd8a636 be8bd223 3d09ebc4 3da558d3 bd9bf9ac bd86fa42 bd91e9b0 bde3cf70 3d78d7f5 bd46bce3 bc418344 3dd4d436 bd9a2b9f 3e0325e3 bdda0e18 be306de6 3d975e10 bb2bfd30 bc521fbe 3df7d580 bb979491 3de5900f 3eafc99a bc965046 3d2a7f91 3dce71a9 3f0501c9 3c89ea8b 3cfb745f bdb1e6b8 bd992fb6 3d6f6018 bc921bb6 3d4ededc bf326184 bdab87e4 bc84a3f1 bda3dae8 bd0d0199 3d0956bc be1abf41 bd5a2de3 3cf287bf bd594599 bd80857c bc7dcf61 bc737bd4 bea31142 bd9173b8 bb955722 be5f06a2 be015212 bd680630 3e108969 bdc947f0 bc6c60ae 3cc751a3 bdb0343d 3d9dbbb5 bbec8b4d bddb4a28 3d156937 3dc31e6f 3d6d7a96 bb4a02d0 3d4e9334 3c4d2ef1 3cee5d7c 3ec5b512 bdaa3111 3d99134e bddd8993 bde0324a bde26fc1 bdfedf2c bb8cf484 3cd3585c bc357994 3ca1f8e3 3d8bb30c bcbb9d63 bcdc160a bda33298 bda46522 3c646754 3cbe7544 3db0c2cb 3efefe55 3ea4dd6b 3d0eef39 3f74c37e 3e94960b bd952f69 be0308c0 3cbba5fb 3d705753 bdbd531c bd871544 bef16253 bcfe1674 bd3c7ac4 3e6475db bd17cdbe 3daa3d16 3e144be6 3de90f8e 3cf4f0d5 3c92b0f1 3df80041 bda8260e 3d0bbca0 3db7430c bd10ef30 bce2f0e5 be265f62 be8fed31 bd710b21 bd012729 bd032b14 3cbf1a33 be8b78a2 3ded5e3e be029196 3da2ea2b be2830fb 3d82ce05 bd9d513c 3df34d35 3e27b219 3ded886a bc0314f9 bd5f6e8e 3c3eed67 bcde4a15 be4a6179 be1e4e94 3eb0333a bd1d6ab7 be1ca591 bf69ed98 3f2a7f5e bb56449b be1e6311 bca4d78f 3e63cbef bda0cfbc bd7be2dc 3b8b9a17 3db03647 3df43b0a bced8d6e bd153d9c 3d31af3b bc881634 bc3cbb6b bdd397ce 3eebaa40 3cf4b349 3d0647a5 be2cc427 3dfa942d 3e5c9b9c bd3d4275 be0e01a2 3e709b3b be59b06b bebc1387 3eb38fc3 be33d6cb 3f2b1b6e 3ed264de 3f45e873 bd1bc019 3da14dff 3e17ff57 3d9724cb bd3a7d63 3e931ed5 be112065 3d1c9bdb 3e6df13a 3ddfcb6a 3e4171c9 3e9d7c82 3e67c50b 3ec29fb4 3c535f46 bcb30bb4 be0577fc be9c0269 bec9f70d 3deefe52 bd6d38ae 3c6c290c 3bba6996 bdbd74cc bd553a77 bda1c5f3 3ddb7667 3e9deac7 be9aca01 3ea9cfea bdfbf773 bd8f7e8c be872b54 bd722e5c 3e5c4969 bd13c649 bddce3f5 3e51ea91 3e030a79 bd9a0115 bf36bb63 be55e52c bea0b1f7 3e873010 3e1fad43 bf216d62 3db91b77 3e50c71c 3dcaf312 3e64dcdc 3e3ecb02 be204060 3ebca189 3e8ba0ef bc8d2660 3dd5ae6a 3d7c8774 3ea74d49 beaaddd2 bbab7015 bee91c8f bdf1d2ba bcb8d076 3e1277bc bd8aa0fd bbec490a be568a2c 3d841793 3e5ff427 bdb00090 bd996e11 bd55714b 3db01978 be373e02 bc8e2e05 bcd9a117 bcc89784 be893d2f be095910 3c0b25a7 3cda7450 3e20750f 3e75e86e be29f983 bd3224c1 3a2868fd bca678a2 bd40201f be04d737 bc88ab6e bd738050 3d92a4d9 3d3becbf be53eb33 3b232341 3e5c7285 bd8bbad3 3f33465d be35958a bd51b450 3de1e50d bc5ff68d 3c581a6f 3d3b1a8c be030368 bd730333 bed306b4 bd769437 bdd331a2 3d7f1ab8 bde88282 be09f733 3dfc6ba1 3b9c4d0b bc3a5243 3a8959e1 be903f72 3d825f6b bc39f159 bc39a79a 3bc7f49d bd5db32b 3c9db7bb 3d858194 bea7bcb9 3bd1f6ae 3d2afc00 bd9e2781 3ed61161 bc811e9c bcdd417f bd35ad12 3eb97229 3d1f5e7c be1fa77d be27e10f 3c779336 be3b0c69 bdb0b6de 3d04c39b 3e188f0a bdfa66e0 bca9fd20 3d5b77d5 ba563f8c 3d5c69d9 bcb70e0d bccea218 3f7e0766 bdd8e963 bd403038 bd8b8263 3cf60833 3d5055b6 3d75a420 be1e2ef1 3f8d1ba7 bd0b2f86 bdae6d96 3d80e5d6 bec56f19 3cc048fe be17f05e 3d2fe2fa bed16e99 bd902854 be014c4d bd9518c6 3d2803dc 3ddeef7e 3e651a2a 3d28f3a2 3dae36c8 3d3c87ba be005e1d 3db2c792 bd28ef86 3c1bebc0 3ca0f14f bdadb694 3db52771 3e420853 bdbbe314 bd39d95f be9a819e 3de41099 bc60fee2 bd618324 3d3b03d9 be8d9d9e bd2363f9 3cc7cd42 bd22f772 3da7b238 bcf99efd be1daddb bda45c72 be23aab0 3d9ee9d3 3e5f2f0c bc661a99 bdd97c05 3d948e93 bd7aca85 be941eeb bd6723d3 3ae5bba2 3e2006aa be126a59 3ee96e2a bd8675e5 3d7b0d94 be633f5d be25f1f4 b9076a44 bcea24bd 3f0f6325 3f2b606b 3e7c22a8 3ca86c78 bdc8ce9c 3d29211d be5f31ad be47f86c bddb3d98 3b852bb3 bc853eaf bbc4432f be0fb06f bc39e43a be99e22b be2b41f6 3d480f11 beac30f5 3d2111fd 3d11ef91 3edb7365 3e9548c1 3dd08f26 3b1de755 bd236c50 3dd14e70 3cd29032 bd7f6e20 3d3679af bc4ae849 be2cea6b bda4534e 3c9be290 3ea963bd 3e161cec 3c5aaa91 3dc9ff9a ba0ecfab bd1bb997 bcc6a363 bd099de1 3d983a57 3d94dcff 3e006081 bc9d3937 3d9866a5 3e261dcb 3db59162 bd97a863 3c8585c6 3d6e00e4 3d8ad799 3eb4a14b bd94d76d bdb7edcc be87b553 bd34fee6 bd5edb29 3e52652a 3d720a4f 3d0f7d4b 3ef290ea be1b58b6 bea4ba48 bde115be bd853b3c 3ef41db3 bc43fd0f be6925e0 be1693bd bc3024bb 3e84b870 be8de775 bb111337 be0a23b8 3dfab7c2 be7cb240 3d70df57 bdd629d2 bd66d56d bce4332f 3f2631bb 3e67e818 bc158842 be7713f2 be62bb64 bba7c789 bd093e3f bee4d08f bdeca663 3dc72177 bb406ed4 bde89a77 bc826fc9 3d12fe82 3bd64410 be8976f8 bcb72c87 3e798e78 be3a532e 3d1abdd1 bee220f2 bec16079 3d24f6e8 be02f58b 3a6aace4 bc5531a9 bced44cc bd8e2cc9 be50f2e9 bdbea6d8 bc4528f6 be01440d 3d9317de 3de4a8e5 be5d8428 be92a4c6 be4a1a39 bdf8677d 3d7ad6d2 bdd61d89 3d201507 be32f8e3 bcf14800 be4b0ffd 3e133480 bc51c8c4 3e1f5b92 be82f313 3da697d7 be906609 bd618d25 be0b7dd4 bcedf2fa bc7a7e0d 3e52ccea bdbbb2f1 bc42fe36 3d03eefd be6d7516 be4385ed 3be7a03d 3c892115 3ebd7b00 3d6d78a6 3e4a9584 bd9bf566 bc7f6483 bf08be68 3eab5372 3d267bbd 3c96e9d0 3d9421e7 bc25b36e 3ecb248c bed3df84 bd041452 3c274165 3d0102d3 bdda0056 3d80a1c2 bd54e746 bdc410e1 bcdcbd9c bc8b8629 3b1cfd6b 3cb2c35e bdd6bf4a 3c7759e9 bdeff021 3ca0cb3c 3c011d69 be27cd14 3cc3d184 3b9e15b0 bc6532c3 3da25d2b bdba7d80 bd3678a5 bcb80d66 3d8a2a6d bdbf68ec 3e0aad99 3b06e6d5 bb1653ee 3d27f607 3dab5644 bd05e6f8 bd88fb83 3d866167 be7c1de5 bba40b47 bf297f22 3ec559d0 bd3553b3 3c034751 bd95fdeb bdb29956 3c2cc742 3d7abc73 3d329f47 3c2f2252 3cff86ca 3da64baf bd980f4e 3bbd698f 3f21e122 3dcaea88 3dac3c35 3c66449e 3d248269 3cb448ea 3f39b0a2 3d91d3f2 3e0371ee 3cdfde98 3d960a5f 3d043fdb 3dfa13bb 3d9516e1 bd3a6906 3d8e9bb7 3cb5ba12 bd3f0318 bc571e58 bdd34127 be4afaed 3d22a607 bcd6bfa2 be5b4621 3d3c0544 bd15c764 3e0f1cfe bd998afa 3c5661ab bcf521fc bec953b5 3b0838ed 3e75e50d 3dc63798 3d74f87b be342f95 bd9757f8 bcd01e50 bd44b3f6 bd216968 bd24c111 bcefe4f9 3e1ea028 bdcc70b2 3dbcb83a 3db1f2cc 3e0d3ef7 be23dcc7 bb42610b bdb4e3c6 3dfc01a9 bd8b3771 3e8965e2 3dc4953b 3d9ea973 3e07e283 3d556209 be91e7af 3e534628 3c053b52 be20ce01 3df4f0e4 3dfbbb82 bbe48923 3d92d4ee be875ad3 be86a22a bdee61b9 bd01fb65 3d395af3 3efee01a bf0d85f7 3e580423 be9ccc21 bc864d63 bd259847 bc44b9bb bcfa6841 bd9f7d7a 3dafc335 bf01c239 3d63afe9 bdc28f25 bd5b0f07 3d096b86 bd5ab270 bd7c297c 3da01372 bd11d91f bd794602 bdbc822c 3bbfbcae 3d7b1da7 be361eb0 bc41899b 3ccc43b8 bf2be94a bdbd331f 3d4a8c45 be37ec92 bd667981 bd28499e 3e897f49 bc331217 bd1b819b bb4e80b7 3be15818 3d8de935 be720894 bd1b83eb bd0fd7de be83123e bd2ed3e6 bd6436ef 3ef047f1 bdec5e14 3e21bd18 bd8b6473 bd1235ec bd04e5d7 3c8656ff bd20c3cc bd38e09d bc95589a bd68381b bd24f644 be236fb5 3d22a752 3e632fa4 bdc33dbc bd5f350b 3e4a7088 bda899d8 bc2b9890 bead688e 3b1d6c3d bca54035 3d50c64f be685e36 3c93f8a4 3e32113b ba3fad44 be49e209 bdb7de69 3b2c007b be2dae52 be831997 be1e33bb 3d0c4c87 3e8dc358 beb0546d 3e61851c bea81698 be77ad16 beb9b2ae bbadaf38 bfaeca1a bdb79fec be33146b 3e01d091 bb8cd586 bcd8997d 3e7c7b9b 3dbace51 3e4aef77 3e4f94f4 3e2bef21 3d01f29d bda1b466 3bfe4b50 3e6aa786 bca13dda bd80f859 bcbd3bcc 3dc0d4c5 3cd3f33a 3c229829 3cac7ea3 3e59bbe5 3d2d46f0 3da3aed6 3e8c492b be1bf775 3edf1c47 3e76eb39 3c824650 3cd6b211 3d0ddc19 3de56854 3dad2214 be50c02c 3deedabb be1a0f5b bc91eeea bc85ad2a bd75ff4d bdf34f16 3dbce7da 3ebb6132 3e641f66 bc95e318 bdf0ee0f 3c7b0022 bdb6c837 3b14efcc be9c3c8b be3e45c3 be57623f 3b247082 3dfa57e3 3da18cf7 bcbcdfcb 3e0e4a21 3dfd3545 3d948952 3de89720 3d943a78 bc256bfb bd5344db 3d9d59ab 3d4c56ff bc90c925 3e1ac4e8 3ccb8943 3dd79752 3d5dde33 3bd1466b 3e286e28 bdd310d2 3e4c77ab 3da4394d bc65c177 be13a96e 3da01294 bae5942a 3e179d5b bd2a8e76 bd83122b bcdc52e3 3b7a00dd bef012c0 bdc3cdce bf3ca43e 3e6c1a3d bd9b229a bd0db9c6 bd879d7c bd1318a5 bd006cc7 3d5395be bcd3e7be 3cf6eabf 3c640358 be03acdc bd50c6db bc9b72ce 3efeae56 bebd57e9 3d645616 bde2795d 3c5ff6bc 3cf192ea 3efa8808 3dfaef78 3baea836 3c88a4c6 3f10115a bdf17e66 bd0c1981 3e206ee8 bea836c5 3d34deed bd0395b6 bd79d796 3d9282fc 3e05f375 bc2af036 be4576a0 bcf41eee be0f0a92 3f321ed4 bec8ace0 be4ba561 bddc7af1 bea25364 3db9a6e9 bd6c56b7 bdd8b075 3d2b13c9 bdb5bc2d be37605a 3c482014 be619078 be4b55ea 3d90d69c be92fc35 bd36aa10 3cf164b6 bae3f51b 3e849eb7 3d543b4c bf084b0d bd5b3f36 bdc2899d 3d14fb29 3d2c8f34 bc584d1c 3d43d4fb bdc7a228 3c669214 bd221507 bd93f3f7 3d046695 3e1fd2e5 bd9ead6a bf690291 be2d0690 bc3c7186 bcf6bd54 3ce5952e 3ca88ea2 3cb535ab bdf107c2 bd64deda 3e435cc6 3c6c08c2 bda24be8 be1cbb58 3e30e147 be9ad1c1 3d951784 bcbd0979 bccb8a19 3cc4e10c bc8f33f8 beda2941 be06e9b4 bec47c5a 3dfcb983 bd898d65 3d2d153f bde9425f bd870cc1 3cf9eba7 3d7699e9 3dd13a69 bde069e0 3d08d237 3d62d600 3cb92b52 3d16c84e 3db9082e 3d8df8dd bf25244f 3dc70172 be4f6c65 ba565f34 3d6ee169 be8044dc bd5b1057 3cfa4cb6 3db41b62 3be6bd89 3d01fc41 be1330ec 3e01b420 bef53bb9 bc7e42aa bd6ccc62 3d11510f bd64648b 3db41f63 be070d6e 3d39ed15 bef8f13f 3df2cb44 be5a3e67 bddb4a19 3f4e383f bdb024ba bd2472ff 3d4deccb 3f3669bb bd2dfbb6 3b8c279b be32e4c7 3cd80f45 3d5937a3 be56570e bb2d5162 be04c7c7 bcdb70a0 3d685688 3dc84bee bc31256c bb95e102 3cea94e5 3d62276d be1b4705 3e294c0c bc93457c be0f2d8e bbecdb5c be6d3636 be950da0 3dbccf0b 3df5519f be6abbe3 bd7a6d96 3d7634b3 3e4bdca9 bd6799e4 3d078871 bd4b1c07 bedea2ad bbb84824 3dcb34d7 3e1ceb51 3dff9a0f be98d90c 3d8ad6fe bda93dcd 3e4febc3 be062f1b bd80aad8 bd97a14a 3c165fa6 3dc198ec bd24e1e0 bdfd00bc 3d7f5bb7 bd86d9a8 3d0c4c57 bd4d2d0b 3d063f1b bda6206c 3ceb42b2 bd95bdec 3dc49c86 bdad39c6 bc9d5ab0 bc8d23cb bd466cfc 3eb3cd00 3ce90e68 bd7ff4cf 3c5f9c2b bd3456a0 3d026c5e 3b4a2392 bd951b1a 3d8bbd09 beef03b0 bd92c00b bd4fd486 3dc11e86 bcf71596 bcd60828 3d8a141e bc03fe70 3d1f200e bd79d33f bd54390d 3d17059a 3dd39d21 3bd16bb2 3ee94869 3d3870ab 3e22d705 3e1c041d bda0a24f 3e83fc9e 3d9c2922 3c4d229e 3dd168a9 3d1d2982 3d40627a 3e01656e 3e35428e 3da6ce82 bc288aa0 bc29eb54 bd8ea056 3da804fc 3d1d61fc 3dda54df 3e4a7d4c bdac4dd0 be0b9469 3dca2461 bc948ede bcc03b92 bda1122d 3cd06779 3de08314 3da023dd 3cc4b410 3cb536ec bc630d6e 3cdf4552 3c5676de 3f5a2c66 3d31b355 3f51f6e6 bd8cfc5a 3df9bdc0 3de11b43 bd9bbaad bccbc7b7 bd8343c4 bd439a5e 3f2f690c bdb2fb9f 3b892a91 bd7bdedb bbe6d404 bde7fd85 3f57b808 be5ea82a 3cb7251e
body.stage1.4.4.weight 64 3da44414 3e5a28db 3e9634a0 3de32855 3e4aa37d bd75544d 3e624839 3e529811 3e020d43 3dcae69c 3e38356b 3dcc69e4 3e09986f 3d340f99 3e59a58e 3e4e076b 3e0ebf2f 3d56f79d 3e93918e 3e0e3974 3e510e0c 3dde3183 3dda13d9 3de7cc3e 3e118244 3e07f773 3e1ecb27 3e43c206 3e48a008 3e7040c5 3eadf99a 3e46eee8 3e142652 3e0f4996 3dcaa9b4 3e1f42b3 3e75e641 3e77bc63 3de5a0ae 3e9b79b2 3e41c0bd 3e3af7f2 3e64f521 3e7721b4 3edc0849 3e8b9585 3e45dce5 3ec04bd0 3df49a1f 3e693b61 3dea9b63 3e0b027b 3ec1cd9b 3e3577d5 3e55e83f 3e2a8ea0 3e6b02d7 3e924410 3dff2f6d 3ec9866b 3e29b3b3 3e715d24 3e36d2b4 3e46841c
body.stage1.4.4.bias 64 3eab70ba 3e8aa8a3 3ea0c0a6 3ed7a19d 3dff4562 3e831bbe 3eb9ae42 3e9ecb2f 3eb35f3a 3ec3982a 3f00fd5c 3f02c62b 3edaee8d 3e906895 3e90b320 3e9fe1d0 3ed8197c 3eaf1571 3e932ea5 3e6f82f4 3ed360ad 3e95522c 3e932f71 3ec815bb 3eb675fe 3e82aa87 3e9f5596 3ea27e30 3ea20574 3da582ef 3dd490f6 3de219ae 3eb26c9c 3ec0b9fd 3ee01941 3e991164 3daa037c bdcb5e00 3ea77990 3edc2950 3eb3c7e2 3e7dbb58 3e35a1c6 3e772faa 3dc3a5a4 3f1fab5a 3e3e255e 3e440e73 3e9dc445 3ee281c6 3e6d19bc 3ed56fc5 3cdd0a68 3ea2935b 3e331d4c 3f023cf0 3ea77a0a bc2774ba 3ea16cd2 3ed5de51 3e8ace27 3d802d6a 3e7b1270 3ec50c9e
body.stage1.4.4.running_mean 64 bf20ef60 3df5c29c bf310499 bddd7e09 bedefd9b beb88574 bf8b1489 3eb25024 3bd9920c 3e620969 3f3e6623 3ec05dda bf9e0706 3d872943 3f36c492 3f276eae bed09a31 3e1c33a5 3fb4db2b 3fb7aee5 bf4951a7 bd205be0 3f21c0e2 3e883bcd bd8bb726 3d3675c3 3e785ef3 3f469773 b9a46797 3f20b56f bf37c4bb 3f2445b9 bd8e77a3 be75ca2c 3ff9c332 bfa8013c 3e1cf343 be1b9745 bdebccb2 3f5bc1a6 bf3ba9ac 3f602450 3f38a720 be5aa845 bfb407c8 bf4503aa befdb660 3f7a1282 beaf8811 3eae1b05 bf6ab940 bdd3ed7c bf289877 3f793d8a 3e2000f0 3e503b3f becccf7f bf584cba beda2132 3da70ee4 beb2301d be513629 3f84e86b 3f0a3115
body.stage1.4.4.running_var 64 3d3f1530 3de811f0 3e5c1879 3e216f39 3d0e1f46 3d245a45 3ea65db6 3e107df5 3da0bee9 3e01c21c 3e5d1c4d 3e51bcd0 3ead80d0 3cc6fe3a 3e422c15 3e1226cf 3e34fde6 3db21ad7 3f14175c 3f0ea887 3e6c6e07 3dd341cd 3e81d5b9 3e2cf580 3e3f9948 3e075b62 3dcaa214 3e0606a9 3e200535 3df19bce 3da00f83 3da8227d 3debbece 3e3ac1d5 3ed7f2cf 3e6715d1 3e4ac42a 3e2bc456 3de6eaca 3ee01365 3e15338d 3e56290e 3e14ab74 3e05be61 3eb1f986 3ed49d13 3ce51b2c 3efe62dc 3dcab4d8 3f068147 3e21bc02 3dcdaca0 3daf7324 3e8921b2 3daa7646 3ea74ec3 3dbd056d 3de697a6 3d97b20f 3e74ba6f 3e0c649f 3e02eb68 3e4ed806 3f14526d
body.stage1.4.4.num_batches_tracked 1 48091200
body.stage1.5.0.weight 576 bd6a016b bd746149 bd9a954b bd945f19 be9b9975 be15ad50 bd1a2289 be8c7d69 be000980 3d0f37cf be612a46 3d08ab00 be3891dd 3f4acbd8 3d4d6698 3c09b77e 3de62a73 bceb440e bd9b18f1 bf07d549 be57fef1 3ea09c2f 3f1e7c9b 3f037c86 bc9cd0cb beb021fa bd9c74c3 bdd22aa8 3da3942f bcfd8872 bd897d70 bf029f26 bd9d77da bbcc3386 3d5a0490 bdd2e84b bd67c248 bd112b78 bcccbdfa 3c0132b5 3ee000ac bc56cb36 3c2210c3 bed9fe0d 3dbdff44 3cb7203c bd2ce46f 3d2c4f57 3db09c0f bec610c4 3dbfff02 3e11bf30 be54bda1 3e05cbae bd77a1e8 3e317301 bd32612b 3ddc052a bf9a6f5c be1adae6 bdda3221 be1203d8 3d8e1550 be24ecef bd34f82d 3e138ca4 bea6563d bec8aea1 3f371756 be6f452e be60c1c3 3ee9d29d 3dee2c52 3cb12b65 be1c6983 be2f10ee 3f267e25 be0404fa bee2394e 3dfcfea3 3e31f54b 3e646251 3f229841 3e5a45c5 3d9aa681 be7c7fb7 be9b49e8 bdf3f983 be8ae148 be742727 3df161e2 be8b8fe3 3cb33f04 3ea7da25 bf2a1941 3e9d074b 3e00a827 bf06cd55 3d0b6d05 bc8cf4fe becaa2a8 beb09fca 3e03151c 3f415710 3e2b9894 be2ee7b8 be25a916 3d2832e4 3db58268 3ee09eb5 be2b80ec bd570a43 bea318dd be0c6bf1 be82a2e1 3f80a662 bec56e07 3de7b8cf 3d6064ce 3e14ad43 bdb20bc8 beb4d560 be3cefbb 3d43c7c5 bcf39f27 3d7c74d8 3b993abb beae866c 3e1a76fd bea761a7 3f70ca20 be8cb360 3da5cf33 be962013 be38ad37 3e4f90d5 be9ca7b1 bd10d823 be4876c3 3f8ca287 3e040bf0 bd51c9c0 3d2e9200 3d9dac11 be144c09 bd1a3464 3e58cda5 be84ecbf befc327c 3f5d1397 be875ec7 be0d8679 3ea921e9 be4a57a9 be7dd268 3ec51c41 bdf2b646 3dc0629d 3e9b8734 3e86cc7a 3e26d072 bf0636d6 3e94492a be5f5103 3e8a32d4 bd549583 3f276da5 3e5f9fed 3e93c5b0 3d08b246 3e88324d 3e0f6897 bda1da81 3d975f46 3e4a96ed 3f20315b 3e73feec 3e1f3b2a 3e1b8d07 3e8a2997 bdd43e5c 3e43ce43 3e6601fc 3eaae08a bf4b2380 3e985e6d 3e6dc052 3e8f1df3 be001539 bdc1759f be2b0ebc be2d0d4a bce3198e be8ff8be be25fe3e 3e4576ed 3f068f7d 3e44d1da be289167 3e8991e7 3ea2e27e bde676c6 bf6761a4 be8797bd 3df3188b 3f011831 3d7c43fc bda1c29a bd985d46 bde26969 3e3a6294 bf35c432 3e6d8348 bdc6b573 bea9b101 3d207a4b bd4934fa 3e078dc8 bbd37662 bdc5b9e5 bf0eb908 bea4bafe bd25d979 bd9c19c7 bcd249bd bb92e4fa 3d208a90 bc3f2f22 bd49f01e beb2a855 be5ad270 bd02d4bf be892744 bd734f58 bd7b5e13 bcbcf1c9 bd3412c7 bdb47682 bead82e8 be437390 3d1e9c80 be591930 be23cb3f bdbb2524 3def5461 bcc20b37 3e08f3c7 bf52f23e bdd189b0 bc465fe9 beab543c bbe1483a bc5c4170 be193bf7 3d7a5d62 be46dfa1 3f8f889b 3d93732a bdb136ed bd162256 be85a6b5 bab9204d 3ddb2179 3dccea5d bdb48195 3efbeb25 bdb3897b 3d20bcb0 3e6178ec bde38db0 3cd097d1 bf2cd8fc be8152a0 bdc7595d 3f3e5b57 3d2b1c27 be0302cd 3e59218d 3dad7abf 3d4b41ef be724f59 3d8d9c62 be160d71 3f029ab0 bcede99e bca4573c be24f844 bcd1dabd bda438f7 3e9d8e0b 3d19f2a8 3e63ebba bf1d986f be4a1675 3de1bbfd be839181 be26a696 3c2f2795 bd99a75c 3db40b23 be4f7288 bf24e4c9 be69479f 3ca71d8b be99d243 3d40d09b b799e490 3d593094 3ca1b0dd 3d280389 bf5a022d be30e878 bcce44c3 be98193a bcd242ed 3c45db80 395f7677 3ca1689f bdff8bc5 beb16028 bea7d70d badbd92d bddeae47 bdc21be4 3d1575fe 3cbecc01 be09acda 3d9e4363 3eb3731d 3e01a59a 3b5a50b0 3e4f4fff 3e64cb3d bd1bcc12 3e024f1b 3d346a17 bbd588f7 3ea0892f bc3a4b57 3d44589a 3e81e824 3d20c33e be18643c be5f7487 3e8df8ab be9f0322 3ea805c8 3e85394f 3e8b9740 3e776c61 bf27cfc6 3e13791f 3d2584aa bda82a43 bdea46c5 bf37d1c1 bed11374 be037c3a be53cb3e 3d6437d4 bd84b872 3e569e82 3d48890d 3a93e34e bf3c324c be464c32 bbcf3b93 3eff1858 3df0a252 bd86ffae bd3d5478 bdc8040c be145e02 3f28a305 3ed609fd bca07945 be34d311 bd86df1a 3e999243 39ec2f7b be59b215 bd271287 bf037628 bd4ad5e9 be0370cb bc8bd577 3f01ea2a bb211dcc 3e1fbd97 3ce8231e bdd6dfc2 be99a7f8 be4a689c bdea9476 3d2045ae bde3917d bd14c38e 3e9e2ef5 3e1a43db 3e6b0916 bf9a35b2 bdf1f3c7 bd630012 3d223d73 3e6c9ee9 3d2ea057 be8fc109 3ded1455 bf293916 3fc0215b beed5e60 3dc83de7 bd1f8510 bc321a99 bd6a1056 3da89434 bd460089 be277d25 3ec1a6c2 be5630af 3e573137 bec30bf8 3e765590 3df29702 bea3ff6b 3bc92027 3d98f2c2 3f4b32bc 3e386fbe 3dc18fa4 3e0cd9b3 3cb0340e bd2127fd bd520908 3d49070e be0212ce bf098b7d 3eebc315 bdade600 3e807729 3ddacbdd bcf0c53e befe49b5 bd21d8e6 bf01c47d 3fb1d6d3 bea4b1eb bcebaa10 bc5e3c1b be07d876 3e018197 be5f368e bd08fcf6 bcef05eb 3f02e86e 3e72bcb5 3dafd9d2 3df81529 3cc10c7e 3e712be0 bd96a0a8 be5930e4 3f216c03 bdcfe80a bf10e9ae 3e812680 bdfbfd8d be21849e bceb2aa1 bd9682ee bdd4ded4 bddca986 3cdfae7f bceaad73 bda0bed4 bc420e2b beabc014 be265e66 3e9c6b6e bddbd9e0 bedfc80b 3f30b4f2 beba8ae3 be159f7c 3e8e0286 be4f01c3 be40c6cd 3eb6358f be2f111d 3e2b3aba beed6275 3eb8edd9 3c2c0950 bdaf0764 3da6da06 bce713c5 3e2565fc bdaf8e66 3c5b68fa bf39e180 be5ab2af bdeb6f77 be1dbe4b be053fac bb6ea692 bda62f64 bd14f5dc bd629960 3f3d528f 3e90943c be17191a 3e67c5f1 3c59b25e bda35708 3e061362 3c2240ad bd9b9498 3eb814f8 bc94b8be bd06f03f 3e817f62 bd410e9f be045a9c 3d98b344 bda98888 bd9204fe be8341f1 bd7c1c8d bdd510f5 be108bad be4f5735 bdf03851 3cd5e3f1 3d80e4b8 3c4355ba bf501a76 bc8fb688 3dcd8f9f be04fb32 be711247 3ceccea6 3e6d10c3 3dd9a2ac 3eab0262 3eab8932 bdbe2aba 3e58dc1d bd5c41a1 bebb94bc bda4148a 3dc85b48 39c3f1f6 bd5403fe 3ed0cea2 bd75c551 bc177339 befcd100 3e40b4a6 bd9c0f61 be3ec392 3e6e61bb 3ed2914b bf067071 bd3a5ec4 3eb5f75e bb725c8d be8a30b0 bbc32de9 bdca68ac bd665386 bceb0540 bed7d6cf be047916 bd8f6d71 be6dacdd bdcad632
body.stage1.5.1.weight 64 3ec18a82 3e534cb4 3f05585d 3eb094c9 3edc801b 3ee16624 3f1eeaaa 3f250a21 3ece13e3 3f0b9fcf 3f018876 3ef91050 3f00042b 3ea9eef7 3f0f68f5 3e152677 3f1296f0 3ef556d0 3eb2ee4d 3eee4658 3eba506b 3ef25918 3f146779 3f0e4841 3eaf6445 3e43c9ff 3eaab43c 3f1a459a 3f0bff6e 3edae18f 3ee62fb0 3e976af5 3e04da46 3f07d241 3ea10662 3e74882f 3ea78254 3e9b643e 3edc624e 3f1e6aef 3f012298 3e97fd9a 3f101e65 3e7bc460 3eaa6cac 3f2ad0a1 3f03323c 3ea57833 3ee00020 3f1ea5ee 3e80fb9f 3f2dbb44 3f146a84 3f1bc320 3f04648e 3eca9586 3e906456 3ec2f03a 3ec20756 3f116c2c 3f07b425 3efe46c9 3f097a93 3f4fde5b
body.stage1.5.1.bias 64 3d3f6678 3f224e09 bda41509 3e615eed bb34241a bd940c99 be04e890 be197352 3db7b8ed bce5b5ab bd44252e 3db157e6 3daef4d6 be16f168 be38b9e8 3e848ca5 bd2a6f5d 3d27e872 3ebb8ad5 3f1a6149 3ecdb328 3a7a53dc 3e343f48 bd83d980 3e05e38a 3ec51884 3e6c8cc3 be86417b bd337620 3b3b2b17 3d0d5fef bc98c962 3ef173eb 3df4b2d9 3f1f7f67 3f659959 3d9938e9 bd1f7816 3d2a913e 3e879590 bcf07b32 3eb2d691 bd83ceed 3ed1f670 3ee43005 3d1294ea bbb5fe58 3eb1f516 bd12d560 3edf96c9 3e0829e1 bc8069d5 be2cd398 3e39e9d8 3c8b452d 3c5d0407 3efe3a2f ba2ac02a 3e4a710e 3e2d824b bd51f620 bd01f5cc bdfacace be97f232
body.stage1.5.1.running_mean 64 bec3be84 3e2ca243 3d68809f bea34635 ba6af32e bd02a444 befb2f7a bcc61a36 3d8f387b bc7da1fd be87dc81 3c2c788f 3dc1fbc8 bd88f5e8 bd7bf104 3e99a7d5 3cd46756 3d244b64 3efb2003 3ed0eae4 3e60fc8b 3abfcdd0 bd593bec bebc9cfe bebd491b be757b76 bea9eae4 beb8dd6c 3e2b7703 3db06864 bb5c1a47 3b124c5b be636d33 bef61057 bf0cd6a0 be92b1b1 3de462a8 3c235166 3c8ce994 bf1d1ba4 bd453ee4 3ded965d bd019317 be23b424 bdcc5b08 3e43b227 3c390403 3e87cfd5 3bc70052 bd8d208c 3e45904a bd457c36 bdb1acff bd2dee87 3c418a09 bf24d247 3e9b9711 3d21bad1 be9b98e5 bef8e9e4 3e5031c1 b966e47c bcec7831 bedf5636
body.stage1.5.1.running_var 64 3bc5c031 3c890e19 3cd2b3cf 3b94e7a3 3b2f89ec 39defb19 3da5cb74 3c7c206b 3b9b6e79 3bd2f24a 3c661c0f 3b79df4b 3ba330ec 39e611c9 3bf1c360 3d1e54b0 3c6b70ea 3a89dcf8 3e5d9960 3d2d7e30 3c1a211f 3c0ed34e 3b376bbd 3c4e8446 3c7cf14b 3c4bb8da 3ca428ff 3d323b17 3cb137c7 3c31f05c 3c7dbb33 3bc4faa7 3c291eab 3cdd3e23 3c5f46a3 3c994b43 3c80becb 3a9f4326 3b88360b 3e0a6716 3c315884 3c445080 3bf6582c 3c0f2657 3ca83336 3c64301f 3bdd9d46 3dd932a7 3bce5e96 3c7d1def 3bdb57a5 3c690556 3c5f2dd1 3b651283 3c032cc7 3d258916 3d3eb42f 3c0e1195 3c0ad898 3de7759a 3c93a2df 3b3996fe 3b799838 3d211169
body.stage1.5.1.num_batches_tracked 1 48091200
body.stage1.5.3.weight 4096 bdc8b690 3c085009 3e25d57e 3e81f610 bd17fb78 bda2d483 3da9b6bc 3d63bdd6 3ec94731 3d84d8e6 bdb33f8b 3de96e53 3d0baa99 3d565a78 3c377992 3e64e083 3d97e99f 3dae9d25 3e1d2b56 3e865727 be4e0978 3d7ac26c 3dd9f265 bb27f890 bd8a749e bd0cd184 bf0e6b28 3e0b8eff be8e3134 3d59062c 3d4b5724 3e04b401 3e36d7cb bd11b4cc bbab93d7 3cb43f27 bcdfa999 3c993faf 3da7c492 39b2534c 3dd71648 3d2ac3b2 3e277f31 bec86499 bcc9d94d 3b1b218e 3d9577bd be456a61 3e7026f8 bd3c052c 3dac78d8 3cfde7e0 be016a96 3cd2b87d bd67231a 3b6f0d2c bd802f82 bce3584a be0cb157 3db95593 bdfcb529 3d62e2f3 3dd8890e 3dbe551c 3e255f3d bd78e349 3d313c3d 3e4acad0 3db536e6 bd94888a bdf66363 bc926ed4 be1e3841 3ccabeba 3d14648c 3d9f602e bda67e64 3d3022c3 3ded3040 bb1a0a9b bca5310b 3c9e9e0d be08bf9b bbf8855e bdc8a31d be1d9d52 be2b8b8c 3cef0791 3ded6292 3dafaa9d 3d922fad bcce57be 3d134cf3 3d1be308 3dadc8dc beaf60d9 3e32d8f7 3dd75715 3de0fe17 3db5bcf2 bcfa884d 3c3229a4 bd0c62d3 3c65002d bd59b2ed bda8fc1b 3c849cde 3ccefaa3 bdcef957 3db39459 bb9a73a6 3c8edbf2 bcd7bad0 3d3f111d 3dbf5fbb 3d3743bc bd4b0b4f 3b7938dd bd8520d1 3cef157a bde0bbbf be2d908a 3dffa858 bd802367 bd7be7d1 3d1176e8 3c85f672 3c2f0c0f 3e1f4fbf bdf72a7c 3d97b8c5 bdc71f37 bb65558d 3a3a3a0f bdd7eb0d bdfe428a be20106e bd7a9dd8 3c6ba6d0 3e1a8888 bd1bdefb bd21d199 bcb9f1c5 be0b99e3 bd23852f bd850b5b 3ec925e0 bdf8f07f bd5bb611 bccb4cd7 bde17f3f bd044295 3e32a107 bd9f92b7 3dc5f1e0 bd71ad08 3e32dba8 3ad4e3f9 3db86799 bc29890a be184f04 bd97f752 bde06427 3b2d72a1 bb35236f 3d8aab66 3d9fdfac 3be01e0d 3d198ac7 bdefccd5 bbdb329e 3d87982a 3decc8b8 3c273201 3d47cfd6 3f637413 bce8655c bc0e11ef 3d2715ab be1f8e31 bc9ca9b6 bca506b2 3d0378ae be1b67e7 bcc0cb1a 3d812c3c bea51a75 3acba94b bd867836 bca810aa 39729323 3dc5694a be438d4b bc86ad1b bd0427c2 be052559 3ca1e3c6 3c655770 3d6dc436 bd62ec81 bd8f6e53 3e244a3b 3d68e8c3 3d8fd328 3b0eec71 bbaf9dd4 3dd1b553 3d5bf0c7 bd07b20d bda55de3 bf0506b4 bc4b4c64 3ddaa0dd bd9e04f2 bd22ccc6 bd250ff7 bed7b66a 3d880f1c 3e8cf701 bcb6cec9 be747e06 bc8acefe be1ac985 3d14c990 3e11a336 bcfa68ce 3d5f7399 bc5a35a5 3cc01a1d be021d33 be3aca9b 3d616fce 3cc04648 bc1ee5c9 bd8be746 3e1b343e bd57cf93 bd9546c6 bd8d5ed4 bf1cbb3d 3d55c535 3dfee0e9 3e0d180e 3d975b5a 3e1673ed 3cf3bbea bcc2fe68 3f2ae182 3c91cab0 bc17bd2c 3eb1f9b3 bce4f8d5 bb6fab77 bd447ff9 3dd8b069 bd4f173a bd10ec5c 3dfe78fa 3c54ea99 bdcc9f66 3d870244 bcd77ba7 bde38b20 bd87042d 3d064343 bd618875 3d300c1f bbdac7bd bc5b5831 bd47e576 bcc32915 be196ace 3e09d5e4 3c319c9f bd164848 b9424fd3 bdd06b70 3d2ea729 3dde5acf b8966e9d 3ed735ef be013d16 3d38dcb5 3d377c71 3d191777 3d1e9b92 be360792 bd6d4e79 bce7e61a 3c8156f9 be098af7 3d3cadb9 be018798 bc0c0c49 3c855f83 bdb9d7cd be01246a 3ebabf09 3e2e9044 bd5f7b87 3c0cdd40 3d681e0e 3c853aa2 bd9cde3b 3ab84082 3e0911be be193086 3bc55daf 3e18597d bce943be 3d5ecbea 3f567d45 3d35f7ab bc20be8d bce3ef07 bd361059 3e374658 3d93c4f2 be21fed9 3d10f7d6 bd95b7b7 bea04528 3d11cb31 3d5723be 3d3cc22d 3cb2c5da bc48117c 3d852a3f bc38b688 3d120956 3dcf3c8f 3e04a212 3e375147 3c7d08bf 3dbcb103 be14e261 bdbc39a3 3dbbfc86 3f10784f 3d0414d9 bde3d5e3 bc8e5c63 bda65b01 3d9f3356 3e9581a6 bdde171a bce36749 3db3e7f3 3e72c7d7 3c2ae353 3d8f2ac5 3d5aa3b1 3d9e968b bcda0c25 3e0b99e0 bd8914c9 3cf1963b 3d97dbbf 3dc49627 be01c830 3ce2c795 3da09423 3caaecaa 3cc0e2df bd90a748 3ba9b885 3c722dd7 3d242665 bd604543 bd1df1da bd9051aa 3da8a370 bd90e6b6 3d4a74de bd1763d8 bdd7c9a0 bddb9b2d 3b896f86 bec2aa78 bc7c9c5e bd1c3619 3ad7f1a8 be0f277d bc683d90 bbfcabdf bd6dce82 bcf8fcd8 bcf9134c 3ec2f7c4 3c3b08a2 3e07571d be20cb28 3de0858d bcc2c967 bd7eead9 3d2e89a3 bc1bfe08 3d82d88c bcc23a1b bd067a91 bd94f0f8 3ea4fa6f 3cc2383e bdd36161 3e55bacc 3e0766d3 3e001264 3d179eda 3bec30f1 3e3b7f89 3d537393 3cee7eb2 bb8715af 3d65cfcf 3a3a5afd 3cdb9d4a 3d03c05e 3d75bd27 3d36d5ae 3cc2aeba 3d020ec6 bd1463aa 3ed5ff80 bd8c0942 3c91ade4 bc81c474 3d603447 bda097e5 3dce6c34 3e14c588 3f5645d6 bb928fef 3ededbaf 3d11f134 3c4be40a bdba19a8 3d20758d 3d9ac9b9 3f4aad50 bd832f50 3dfcef54 bdbd1e51 bdcaec6b be08bdce 3df12b70 3f0c7cb3 3c484cf6 bd03387f be168676 bd71f125 bcbd6657 bd17c0cf 3c9597d0 3d1006c1 be6e7c7f 3e0652e2 bc86ca3c bb53a7de 3d2eb125 bcc76818 3df3ed32 3d07dc63 bc138498 3d3fb8c0 3bc4649c 3d962d08 3dcdff35 3ddacaca bd8a54ff bd67d417 bdc9a467 3d8f42df 3e1f5706 be80075c bd81cfad 3c14a893 3dad6864 3c1effe1 3cdccef3 bd3c0313 3d28aa99 bd5f8a87 3e727f19 bde5293c bcf79196 3c392ea1 3d7de7cb 3d8da2b2 bd9d7524 bb7b157a 3d4e2362 bd1d71dc bd84ed02 3c178af5 3c385a03 bc8210eb 3dbb629b bd69791c bdabe929 3d54ed8e 3d73cee9 3b21b493 3d6ddc69 3e09eed3 3dd7d9ee 3cf4c8b5 be3488d7 be2e3278 3d8996f8 bc51e583 3d2ba895 3d6d7df1 bd827277 bcb2068d 3eaea56a bea9002d bcc06b5e 3d4d13ca be9b345c be28e5d3 be178a9d be1e3182 be249698 be75395f 3d86a51f 3dc7f384 3ee3f1a8 bd9a2bb4 be40d3a3 3e88010e 3e2a502f be86e1cf 3dc7b4aa bd6cbe78 be444256 be4a955c 3c805d68 3c93bb57 be952d40 bdbc90ea bdb71835 3c91f842 bdad46b2 3a106da5 3d3b2e24 be0627c4 3d8e0b4e 3d21e62e 3db2e868 3d9b65ca bec05c7c be806cb8 bd82cefb 3ec78c05 3ddd8959 3e67571c 3e613dc9 be4f1a1e bd8d237a 3d9901d7 bd650309 3e0ad346 bcff4f57 3cdd70dd 3c35fde0 3e8588bd bd9acd1a be15f246 bde528d1 3df0968b bd1fa52a becc3bc4 bd44f9ff bc5e69c1 bea2e132 bd50b7ff bd36df94 be52a88e 3d4bbc0c 3a95af76 bc80200d 3d0d5b4f 3d642edf bd950fc8 3c8df577 bdb0414b 3e027945 bcd06926 3f1d95c3 bb480f65 be303e0d bd81e766 3ddacee2 be3db122 bb5f1b6b bc2d530c bcf9c626 bcffb265 bd471139 3e93ea2f bd980071 bcbacefa bdc6c0a6 3e083de1 3b3d15a9 3d32ae3a 3d8886eb bd8926e7 3db7cb2d bde09e5c 3dc6479c bcf9a3dc bdb1bfc4 3ce64fb5 3e77deb3 bb495f9a bd95580e bd1fdce2 3e20f486 3e295879 bd039691 3e24bedd 3c1ce56d be33d2e7 bd574ac5 be759251 bd51eeba 3e279b9d 3d22b326 be4832dc 3c0e9556 be244cbc bc86a0dd 3d6cfa74 bde00746 3d7b835f bca8f3bf bbdff88d 3e42a82d be1103af 39c78d41 bbf4e3e0 3d0a7975 be023b8f 3ce1caa0 3c1cefb4 3cbe5137 3e12d91c be3e58d0 3c49ced8 3babdadd 3b2a2942 bd732785 bd3a5ce0 3d581b20 bf3a3d2c bc8a6e31 3d27f0a9 3e8487d7 3c160f2b 3db4fbdc 3cbc2232 b8d174fe bd669d2e 3e1364de 3e0491a9 bb17da52 bd4290ce 3eefb41a 3b3b2b72 3ec1baa9 be021613 be97dc2b bd059f12 3dcea766 bd4e79ee bdba3da8 3ca866ea bd03ecd3 bc0a0f47 bca24ba5 3d1a4f5c bd71f3e4 3de9fd31 3d0a8b78 bd935ca8 bc944bb7 be8893bf bd997f7f 3ad0afd5 be7613e0 3ddbf7e3 3e11feab 3d021ea3 3d5b890f be870522 3dbe3244 3ccb0730 be0c25bc bb840a0e bc822baa 3cb49624 3aa39008 3da3c2f9 bebafb40 3e9e09ba bcfa9d46 be208afb 3b385d50 bc87d929 bc7b5f85 3d622292 3db0c1ed bda899d5 3d54adf4 3da65b28 3df0fcc3 3dabf5c7 3ccea575 be0ad61f bdc5ea88 bb8d4726 3c59c34c 3e783d66 3d855dad be30101f bc97c1c6 3db61569 bd9c8562 bd5d05a4 3e0c0a37 3e0ddff9 3ebe9933 bd49fb40 3d389a0e 3e407c87 3e3230c0 bdb27101 bd8570e3 3e174f2d 3bcc4282 3c490295 bd12dbba be24f504 3e2fa644 bdebdc6a bd80de65 3e14ab3d 3bc2f805 bb05931a 3dce3080 be7db1f6 3dfc6437 3dbee30b be41c976 bd6fe33e bdda06a1 3e41920a 3da49a31 3eb2f8dd be1e8180 3d094a86 be67a6f1 bd7daae1 bceb9726 3da6d58a bd8e871d bd770e60 be8491a7 3d829d28 3dd470db 3d8d7915 3da59d3b bd5b4656 be428812 3df99aa2 3e50bc9b 3a6060ae bca7e70a 3d417c69 be1fc25c 3b6f4af9 be250fb4 3e45306a 3dc9ce4b 3e022872 3e092451 3f42eadf be37b223 3e00b8f5 be07183a 3d7ba3af 3e341aae be2382fe bd66c512 bda3381a 3d51533b bc72d2df 3e6c5e4a 3dfb5feb bdbe03bd be7c4fb7 bce0097a bd2131e0 bc5a45f0 bdf7be4d be1344b0 be0a011e 3e21ea0e 3eee63ac 3ceb3194 3d601e8a bd3c3e32 be118907 3d88d0cf 3da86da2 3d28325e 3e3fb9c7 be8e9e46 3e515c22 3cdcadcd 3e05333c 3e03f7a0 b9efb726 3ec79d97 bce4b06f bd80e75e 3e1c0fa9 3e247b40 3d029043 baf96808 bd7b3073 bda274c4 bd11ffa2 3c57ed2f be2f53e4 be1db1c2 3e22bec7 3e42f751 3f007078 3e48f480 be644eb1 3e96208a 3e3c93bf bd6d7fc9 3d8dca53 bc63a472 3c66192f 3f3a51e8 3e3b513a bd3b91bb 3d151dc6 bd70bab6 bd281c6b bd7d96b7 3ef08e4c bcafa27b bd3150dd 3cbd6beb be12f8c7 be3467b5 3eefd722 bd812269 bdc5ad7d 3d074a96 3d938fb5 bc2ccfa3 3ea39d97 3e8db7c5 3e6cbf6c bd59effb be069419 bde599fc 3d90da61 be27122d bdb4d0e4 3dc92df6 3dc77afd 3dd96df5 bc4ada4c 3de1b4cf 3dcf8ad8 bdabf929 3f0be25d be287f5c 3e88ddcd 3b107398 be316166 bdbef3c9 3e9758a0 bdf02520 3c386188 be2c4e05 bde079bc 3e235e64 3e3c00a9 3e1db6b7 3e0cd4f7 3e888a2e be066ab1 bc19ba87 3c4fd161 bed56423 3d6a2423 3d56113e 3e84c875 be143751 be8d3d48 3e6242e5 3de1976a bdbef59f bd6e57df 3deec789 3e65ae40 3dc799cd be2203e8 3e602ffe bd9d8ce8 be96a3f7 bd8b8416 3cd54eb5 3c49e29b 3e7ca7de bdc7889f be38b451 bd8b0283 bda40e0b 3e83b708 bce0784d be1b6b2f be99d3fc 3e1ede89 be37ed07 bdffe336 be0e3206 be1c3b77 3e96b25c bd88b668 be910433 beae0596 3ea4f5d5 beba6c86 3d8db4cb 3e09b019 3e19fe95 3efdbafb 3d13cb5b bd163a2c bc72f2c4 3e46ef44 bbfa1892 3e366988 be098986 bdd237d2 3deebc75 be22310e 3e505ff1 bbaed43b 3d851ece bdd0f3e2 3d59132c bdfc6976 bd6d1f45 3e32d29f bc71bf60 3deb971d be40703d 3ddf1e63 3e94c499 3cbe0d28 bd1ac43c 3ddc7ebe 3e2d407c bda1a084 be19d5c2 bdfe1ae6 3dac9ab6 be12ad88 3d20d8bd bbbc92e2 3f3d6fbf 3db20558 3d40b2e5 3d6b8888 bdc39b98 bdbcb1d9 3e007124 3d3e50fe bcb0b132 bdca93a6 3d845add 3e05dfa8 bcdb99aa be0a99a6 bd875a27 3e113d6e 3e8d755e be27df8f 3e488561 bf09a587 3e36056d 3e1726ca bdc3e7dd bc47d469 3e75b5b9 be107c00 3c088ea7 3def5943 bddf79ff 3dbf1a2b bd0d77de 3e2d4fb5 3e225604 be7b248e bd90c705 bd3a3da8 bd55f25f be33a526 3e041985 3da6fef8 bdf22e26 3b91086b bd0cc3cd 3d51eaca 3d0f7c36 3d639def bd671543 bc227fa6 3b8c7e4d bb1cac2f be605bad bb4530c4 3c896f98 bcd55e83 3de523df bc7cd7dc 3d114d24 bb444c6a bd15edfe bbde87db 3d953af9 3cb22d96 3d10f5c9 3e080035 bdc52837 bd48aaed bdaa1b95 3dafb4ad bd9ebcba bdc3dc67 bdaf37e2 3e69d1a1 bd6c8a5c 3da65965 3c8e9c2e bc4c28c8 3d802c45 bd8240b3 3e93259d bdca9a7a 3cc47d75 3d9417f0 bcb579ae 3d9cf221 3cae7a27 3c7fe3d2 3b8917ae be18eb0a 3b1bffd8 3c8d221d 3b96cf67 bdb2b855 3d652dee bd24171f bcb1e872 3e3c7df3 3d150c12 bd156389 bce45fc5 be183b22 bd7e63f7 3dbe415e bd2ca0db 3df0877b 3bafe621 3cbe0b14 bd1ee2b3 3e16571f 3e25cfbc bbea510f 3de4b2fc 3d46a46c bcb1948e bd4f0a7a 3e880e74 be341fdc bc831aa8 3e1f828d bcfdc785 3cc32856 bd6e4d47 3cfabef5 bd210176 3d7b6c7e bdf3b8af 3d0cb9df bdf4dd1e 3e05aed1 bd9c9baf 3d85260c 3cb725b7 bd4fdb5a bd224721 bb8a3513 3c334099 bdb4b3d9 bd42001b be05cd5b 3d822522 3dc1ec58 bc47e812 3d7bb587 be0cdb6d 3ce431d2 3da34654 bd9d297a bd693360 3e13a976 3d8b5e97 bd161c68 3d5b718c 3e32b3f5 3dcda0b5 bcde3c6d bb84137d 3e0ec7d0 bb9faeac 3caddeb0 3e03db42 bc5ca02a 3cf4f074 bd14caec 3c68204a bdbc0260 3cedad8c bd3b56d7 3d069778 be0e378e 3d22c2c7 3c253c84 bd19d73b bdc28727 bcbc655c 3cf662d9 be4b86f6 3d0866b2 3c244ae2 bdfdb8d3 3e48c561 3a4e08c5 be56167c 3d8079c4 3da5d7cf 3dbf5abd 3e232498 be325c2e b8ad7459 3c572c18 bcae3a77 bca2531e bdb8c23a 3bcd2956 3ddeb91c bd8ed807 bd1af71f bd740a56 bcd2c8c4 be537e4d bd62603b 3d7b361c bd05528d bddb2c83 3cd699f6 3c802196 3e12f48f bdd4d909 3e896f4e 3e4d6c34 bdcd0bcd be362a2c 3e5ebad3 3f1a0611 bdb9e1b3 bd818e41 3ddcfce2 3d81e62b bb7470de 3cbcb4e3 bdbfc8ce 3cd52641 3d523b8d 3e232ae1 3c3516cf bdfd8cd8 3db10b1a be7aeb04 3c1d29a7 3d10467d 3cbd8f8d bdb26e35 bdc7388f bf16318c 3e16d1e3 bd249fcd bdf58006 3e4c3ce6 3ca145ea 3de2baa7 be1bb818 bdc89668 3db6c18e be484cf7 3ce602a6 3e9027a6 bd3d4b80 bdfaf2be bd87b6df 3e8ed8ab bdd880e1 bb9f1734 bd03d314 bd7833ef bd9f038a be1b30e4 3da91d56 3de0bc98 3d1a8cac 3df6953f bbcfdc5a 3bee6022 be53778d bd5524b6 3efa12cf be1f94f6 bd454aa6 3d4c1307 3d87b1d0 bdca8fb8 be02558f 3cf8c7d3 3dc51d41 bbf275f9 3e81d83d 3cb6d566 3d70ead2 3d1fc951 bd855ae7 be24ec9e be0f62c9 3ea0e6d6 bd45a991 3e180d32 3d99803c 3e866fea be0da94f bdb56610 3e40e373 bb03b15e 3c87b440 bdd6344c 3d7c29e4 bd75c133 3cc8bde8 3ce67b60 3a4ed9ee 3df35bfa bcae7598 3d57eca4 3e8c50ab 3d952182 3e01e50d 3cb20d7f be16b850 bdc5f096 3df072b0 bddea734 3dad8189 3e9522fc 3b9b5aa2 be77d598 bd9f3b86 bccd6db3 bbbf530f bda4d05e bd140261 3dc15007 3e6a5670 bdfe2052 bbadfb55 3cb7a283 bdca7d1b be368509 be3fe4a3 3ebc9258 3b26da00 3de6aec6 bd8a4340 be93373b bc64b4ff 3e6796b3 3cbac8a1 be934e7c bd4d3a07 bd681895 be8885b4 3f08d60d 3e084f06 3e1520c1 bd8cda2f 3e19c099 be99eb9b bde2fd02 bdcb4a90 3d530580 3e285c88 3de64484 3d3f2798 3844fa72 bd0fe638 bd5154fb be177740 3edfde79 3d3f7dc6 3e691f95 3d810006 3e10dc8a 3e2a01eb 3e18663e bda75690 3b9c2c45 bd9d1a56 3e1e3482 bd212d95 3df7f4cd 3e3000a4 beacc9b6 bd8d4456 3c0aff0f bcc4fd5e bdbd7e27 3ac64a4d bc2195c9 3d3dc191 3d8b3323 bde77493 3da2ac33 b98e335f 3d0226e9 be523547 bee1377e bc53faab bbe34d9f bee582e0 3d8e4427 bb8b17dd 3d931791 3ddc440f 3e394cb2 3d82cfbb 3dcbdef6 be3330a3 3c9e9623 bef63f7b bd82a402 3f0e7d47 3daebc97 bebba12e bc9d3363 3d9648ad bcbdd35b bacab9b0 bcb1aee8 bac40655 bcf2fc37 3e582e9a 3aa71746 3bfa4c09 3dbe2d1e 3d11f4d2 bdb47f8c bb516dc8 be8d0638 3d0e4401 3cc3b82c bdcf17f7 bd2cac6f 3dc0e8d4 bd182d40 be0083b6 3e21cd49 bc6d0245 bc40243e be3904a2 bdf67e19 3d314a0f 3d256e91 3dad3e17 bcda283d bd00041c 3d25dd96 3d7f6dda 3ea3592a bb71c85a 3d959fce be472ff8 3e6c348e 3dd1aeae 3de7f488 3d8d07bf 3dda347d bdfd21b7 bda20c66 3d318968 be1c044a 3da7d947 bdbb4bc2 be944096 3dacae65 be141db4 3c3f138a be1cdd00 3d4a92f2 bd96acf1 3c888c87 bd483866 be9b51f0 3e23efdb bcb4f9a9 3d39814d bdc0b96e bdbd278e be053af9 bdc02fe7 be49cb0f bc98fe0e bd544fd7 bcf338aa bd87b0f1 bdf7b234 be57ce44 bc8f8759 3ea65ac9 3c43ef0c 3d91c13a 3d750bc7 bd700114 3dc1f978 3e092b90 bdb4bd15 3e11db71 3d789175 bdeffa31 3d586ea1 3d168d6c 3f24897d bdc0ea61 be515407 bdbb7c4d 3e0a2624 3c4ba708 bbab5a51 be0b30b3 3e5b693b 3eaf2ebb 3bbefb6a 3e05dcc4 bcd0326c bd492bf8 bdb3b30e 3c404f47 bded2b5e 3c92f572 bc8b861f 3d021b56 bd535948 3ba0cb79 3d3fb8e3 3de4852d 3dd2586c 3d00ca75 3e8889cc 3dce8eb2 bcc374fd 3e13f9d1 bda310f9 bcb4c89b bc415b2c 3d2c656f be92eba7 bd79f714 3ed10040 3da0d1cc be1afe68 bc278217 3e0e1963 bd4bcf2f 3d866351 3c20f925 bd44736e bcc2facb 3d06c073 3cef8038 bca42682 3d3b2026 bcb59025 be869f0b 3d7b5fc5 bc40a9ff bd09beb8 bc4d7a49 3c98855b 3e056133 be733154 3dab938d bd939e69 3d81ee8c 3d070700 3d9b84c3 3e27bea0 bca1bca5 bbf7da27 3d110c8f 3c4cb125 bd26fe50 bd352221 bc9d2fe1 bdd1929f bd894c1b 3eac55a9 3d7314f8 be028336 bcd1191a 3caa8d54 3dea1a7c 3b5c1dc2 3e0fc8e8 be97f943 bdee4e09 be1a56a4 bd4d3c4e bcdf1f78 bdc1b39b 3d5738b4 3ea3dc7c bdd7b1eb bf2fbcc5 ba626dc9 3e3485a8 bdcfad9f 3e4032d8 3d286249 3db0a0b4 3e8f33ec beef29c5 3e130918 3d1b7e04 3d81df1f 3e054458 3dd16c31 bd49b553 3db19291 bd897331 3dabced6 bcf440b5 be442236 3d7b21ee 3df2031d bdc0c042 3e0ae487 bdd90f33 3d5f4420 3ce0abd0 3d8bd57b 3d324796 3e6f17d4 3dce4ec1 bd78e88f 3dd0d53b be5c2494 3de76271 3d52e197 bd0ea7ed 3e8769fc bda0bbda bdc0f95d bd9b6072 3e631065 bd811c88 3da39e9a 3ec2f9a3 3cb184c3 be94d2b3 3dd19b07 bd8a4fd8 3da2476b bd478123 bdec1f75 bd4c1350 bc238472 3d3c3133 bdefd411 bbb5302f 3d77bb94 bdf76c61 3e35035d bd00dc63 be39c42c 3e324125 bd67ea8c 3eb5f8a8 be44247a 3d0e74c7 bda4f80e be25f3f3 3e5d20ad bebd7601 3dde50ef 3f037525 bdf7d1d8 bda29a5a 3c8cf143 3d957fa0 bebb2303 be29cc9b 3e011bc4 be823377 bcaa26df 3c80923e 3d2a997e bdbfb060 bcbcab3c bdb9011a 3cfff8eb 3d90aadc bd65df90 3df282b4 bd9731ce be4802a6 bd1e5470 bd4620cf 3de238e2 bd9be8f8 3dcf6aab 3e0b724f 3de497ef 3be341b3 becf8eee 3c03d6e2 be9ad0f0 3e3aaab2 bd200ffc bbe584d8 bda7a36e be09f049 bcac4354 bcb51ed3 bdb2c72f 3dc12248 3e9c9280 be6b8bbc be802cbe 3e52b316 3e04f81d bd459054 3e9c0152 be919f23 3e336c3f 3dc2b35a bdfb55cb 3d247206 3e5e709d bdc3afd5 bdb1b929 3ccae72f 3e091269 be047d4f bd94c40f 3e0641d9 bd437634 3dc80856 bd52d61a 3e20ae1c bd88f03b 3dfdeb41 bd1011b3 bd5bff48 3dde4e73 be3a3c15 3e39d436 3e64ca30 bdb332bf 3dbc3183 3e460552 3cb66868 be1baaa9 bb91cec7 bd8bf7f8 3dabe735 bec76892 be36d63a 3dd0efed 3d2dc7e5 be313b2f 3dea051e bd04b6a5 3e620727 bd1e8de8 bea21da6 3db18221 3cd6b352 be783f0d 3d735c38 bdfedb1c 3ef10ea1 3d83a4c5 3e98c242 3e705cf2 3dacde8d bec4a428 3c2dc968 3d65cb38 bd8ff7fc bbad7a0b 3c1f0489 bc9a01e9 bd229f2d bc86aa8a bd29b00b bdc9dc84 bc42df95 3d6a597a bd10bcc4 3d0a4153 3e37c077 3d57eab0 bb2aff4d be85470f bd7595cb bd533780 3d97f0ed 3d8416e2 3c9ca996 beaeef18 bdd7dd28 bc260d2f bb0980b0 bd5c95af ba87c701 3db68400 3d834575 3de49933 3dd29497 3d6f7376 bc893d8b 3e2e897d bd5d0bd9 3d9b0c61 bca28d74 bdc0cd6e 3e459866 3e0c67ea 3e9f6e1c 3c068963 3ce07b4e bd57719b 3f02160d 3d9831ed bc8dac5b 3e56e1f6 3e1b8b2e bd90b154 bdcc4c71 bdaed3fb beb1c55e 3a177b9b bd0e9208 3e4da837 3dc5e984 3e9d035d bce432fe 3cc5da95 3d966ce4 bcb4e8e4 3df69c03 bbff8c4a be5b3717 be3bd35d 3cd445a0 3e5b4262 bcb22825 3de7fa62 3e4be567 3d7ae557 3e1ef570 3dc99d5b 3cd53010 3d4f3224 3d9ee2e2 bca06471 3e584039 3d2b8085 be2ee77c 3e6a6903 3e64bfc1 3ddfd955 3b09c9ec 3d590c17 3c62ac4e 3dda8db6 3f01ce87 bd616402 bcf9747d bd070ca5 3d261b73 3cb53651 3ec2bc81 be9bc14f 3e53ae5a 3e6cd182 bc031a6f 3e11235f 3db90b7a 3e1e7960 3df625b0 3c1054bd be26699a 3e2ec976 3e405d72 bdbf5cf1 3dc177be 3dfc9a6f 3e186ca8 3d967a51 bcb92128 3cf7154f 3e77a1a8 3d01b538 be149613 bf13add8 bc623c04 bc976916 3df221bb 3dfa3d1e be4611df bc20bdbc 3e044d85 bdd19815 3d8706cc 3d88a8a5 be6aec0c 3e3bd686 be0722f3 bdb3a0a8 bd8ec4fc 3d1a472c 3db98276 3c5daea4 3b85c007 bd8c5ba8 3d37dfcd be149219 bd9e4a8c be096455 bd16421e bdf0504f 3d788151 3ccf48b8 3de43774 3e19f6b0 bc5ebf17 bd87953c 3b9449ce be5c2e92 3e72b0d9 3e9835a6 bd365114 3cb33d81 be281046 3d94bfe9 3ed70c9f bee3f2c8 bd8e293e bde4a97a bd191082 be816ae4 bc37a6f7 bdb47554 3c975572 3d4d4d8f 3d5dd7f5 bddc909a bdf97475 bcc3463c 3dc9a084 be19f1ce bb9b95f7 bd0517ad be259e8b 3f353296 3dec29c4 bd8e705b be0de133 be02672b bd4d1b60 3ca545f6 bdce1469 bdd029bc 3e169bec 3d4ec3e9 be20eddc bc282fed be95cfc3 bc778801 3ba18475 3cd95bde bcd59577 be26df40 bdc39375 bb458583 bb5d51fd 3e3f4fc2 3e16bc29 bdd9b9ea 3c1d3903 3c7b4ff1 3e99c088 3d86f8f3 bcbe23f2 bee5d92c 3ddaa47f 3cc2e17f 3b700a50 bdb71cac 3d9d3e91 39d87e86 bd8ac265 3e5f27e4 3cd6d0f5 3e1303af 3db3c214 3e263884 bc700356 bef90e65 bdcf2196 bdff2a36 3d947b0d bdcc84e5 3de7e89d 3b7d11d0 bccda442 3c87fbae be06f4fb bc5cefe0 be8aa0fb 3d34ad11 bada164f 3e02ed02 bdb7d8a4 bcaf90f3 3ea2725d 3eb9e828 be71fa8b be279b83 3d981d1e 3d7f609b be701d72 bd4f3abe 3dd90ff4 3e76a61e 3b5bb737 bc1a5cd1 3da4a5cc be33ee23 b896a561 3c384128 bd1a49aa 3e667cc3 be355a08 3e790ca8 3eb492ab bef4a81d bd85f183 be612cb7 bd9845ec 3e31fdb1 3e607b1a 3dc26285 3cc3be4c bd5ff50e bd422ed3 be84ebf1 bcc7b75d bd8e6ec5 bd2ab459 3a961683 3d030ac7 3d5e78e4 be3f4d32 3cd628c1 bd8d2137 bd9882ac be764318 3df71192 3e827857 bc020308 bae96f40 3c72ed07 bdf3c00f 3e9232eb bf06a5ce bda8edea 3e91e184 bba84001 3d347332 3c890721 3ddb90d3 bc39e68d b816aa34 3e5873bd be377ed3 3d8f5e66 bdb49fb5 be512590 bd190b1f bd02d8e8 be59ebae 3e6908fe 3c5dae29 bd638644 bd54f9e2 3e2b9b86 3ea59ca0 3bb48ea5 bbbfe871 bdae3916 3e497c9b bcdf317c bd9c0b99 3e198143 bd25d0e1 3d28e85d 3d46c0cb 3c524c34 3d92acd6 3e1f0072 be17b14b 3c50a8b1 be96ffce be2a12ef 3d85bdbd bddebd18 3c7b539e be6675f2 bda8c7c0 be436b4d 3d1cad04 3cc93022 3c1f0028 be8aa0c8 be10b5b1 3ddfebcd 3a660f30 bcfb39ce 3dcee636 3ddd64b7 3e0d7f5e be512e1f be06bf1a bc761893 bc573441 3e80961e 3d8a11bc 3dd45072 3d9c406d bddc66ec bd830323 bdc8e90d 3e54140f be19f5dc bc0f53c5 3da43e11 3d274fe2 be8e591b 3f1b9baf 3da63a20 bdfa2276 be3b64c1 bf21ba6f 3d8621e7 be64b945 be0d0612 3d50d025 bd94cf57 be52b065 be6a06c2 bcc5e196 be0162ce 3d706cc1 be20a676 3c71f473 3d78bc04 3d0d44a8 bc53bf1b 3da88007 3daaaad7 3d8592ea bd638cdd bd246056 be5d5774 bd8004ae 3c0609da 3e96c166 be2bbfc7 be3a428b bdb8a058 bdbb8d5f bd55ef85 be0a96f3 bc219218 3d28e51a bd81cec2 beb773b2 3d39b224 3e44e02d 3e37de05 bdcdc7b9 bdafd678 bd1c0045 3d1a0d28 3ede23cd bd249762 bd8dd7af bd5ed085 3c3d1b00 3d87b2e8 be27ea0d 3f2d0474 bde676af 3e373fe3 be37ad7a be3764c1 3cd56205 3d75ff5f bd94a02e 3e1ea88b bd90b338 bd94276c bde17aa4 bc7d8b42 3cb67a64 3defc748 3dd79db4 bb8623e9 bd6e33cc bea6078e bd34b13c bd0f4a09 bc330b86 befcbb59 bdf9b17d 3e16dbad b9169abe 3dd4bb6e bd7db243 bcf08b86 3ea64385 bee76717 bdd5256c bcbae82c 3e243504 3d82ddbb bda30b96 3d1c2e66 3d0a6a51 bd85e5f5 3bf46b59 bc416e58 3e2abb55 bc84f33c bcc9e756 bc656295 3ef9cf8b bd8c718e 3d9a9007 3e9391eb 3c235af0 3cd162f1 3de3f930 be71af2a bde31945 be6a674d be706fc9 bd1f33d5 3daa8187 3f067331 3bb48cff be88b711 bd9ed9b3 3e393244 be23b5c7 bdde695f bd7740df bdb45ab3 bd096731 3c68c5f4 3cbecfb7 bd7a971b bdb0c41d bd87798c bdfb75fa 3d0947f4 bc991174 3c1c1b8f bec1f617 bdcd2e91 3dbb210c be1899ee bcede9b0 3d897050 3e2ba84d 3d582049 be52cb78 bdec2022 3cba233a be2ab0d8 3b90222e 3cbf3cd4 3cee1a7e bcd1eb88 3d079261 bd052c32 bec8a8f9 3dc6b4e8 bda32b05 bc975e1b 3d8451de 3dcf203f bc901706 be2f9281 be028ad2 bdab28f6 bd863bf4 bdcd5af8 bbd8c735 bd04dfdf 3f172dbe bda56ae7 3d766020 3ea178c9 bd106f2c 3dae37d4 bde15b36 be3d414e 3d0ae581 bd2003d3 bd175d8f 3dea0a47 3d4f8fd8 3ed95b95 3cf7dbc6 3e99b64f 3c4f8864 3c21651b 3dbe03f4 3e143280 3cc4bc51 bd55e003 3cffbcda bdc3ee6a bde3c7c6 3dbd825b bdfb8aca be296847 3e4597f8 3d8c64fb bdc7c84c 3d19a43d be3a73ed bc9ddc7e bdaf6110 3d806419 3d562e2b bc44e4e0 3cd86ea3 3d8d2a48 3ea7bca7 bda9737b 3d324b68 3e8ac360 bd34f29f bd385637 3cff8694 bd934169 bca3c4a9 3dbe415d bd88f2cc bd0cc569 bda64415 bcc05461 bca95e45 bd81af8f 3dbfbd27 bda925fd bd4e3fb6 3e84ca02 3c99962d 3e089abb 3ca64a33 bd97de1e bd31a510 3dea1c2d bc443705 3dc2c8f5 3db06175 bd99bf79 bda20697 3c89d9f5 3e352f3f bdc71477 bc1cffa9 bd8c0f1b 3e6f20c9 bb0b56fd 3ca32853 bd973b98 bd88e9f3 bdfc0319 3d581c46 3ea95472 bdd5d0b9 3b8b0735 3e0a5763 bbc70b72 3d8c2e41 bc26f027 be00e201 bcc05cf9 bd9a0b76 3d7163f3 3cf930e6 bae1831d 3caac415 bd4ae3ef bcc2f530 bc0d52c8 3d260b93 3de2349b bc8170ec bc2430a3 be56f384 bded7dc5 3d97d0ce 3d159e50 bb8f1235 bd7ca27c bc31bba0 bc814001 3e9d38e5 3e28dc39 be7dd13d 3e0b26fc bde24e5d bd3933bb ba91aa75 3cda081a 3d074e2d bd34c6bd bc8250a7 bdde833f 3db8b5d7 b9f129e6 3ced170b bdbc1578 3e5658e6 3c79701d 3d515b74 bd3cfe61 bdb2d768 bcef3b15 3c26bb6e bdf27736 be174d9d be66ca46 3d7db9bf bd21867a bd0a883f bdca911b 3c8102a9 3e90cf07 bdf7373b be725848 bc2884d2 3da2bdd0 3cc4500e bdfa2b3a bd443dae 3c1e16d0 be17c801 bc78ae8d be905390 bddad720 be0634b8 3c883ca9 bd931895 bcc69211 3d405747 3c070c29 3cc89ef3 3ef7910d 3ca0d780 3e187b8f 3df7c4e7 3d8ce0f2 3d4d14c1 3dc8346c bd8487cd bc8be8d2 be12a519 3b065902 bd7c9906 bb774ca5 bc5c075b bd3cd37f 3de30c13 bd5cf5cc bdd5650d 3d007fe4 3c1e6faa 3dbcdb64 bd340aaa bcd3bfb0 3dc76c6b 3c3dde27 3d7e514b be094ec2 bccd9f54 3d301400 3e831179 bc65e6e1 3d667e2e 3f6c16b3 3d569e41 bd708444 bc813315 3d91adc6 3d4e7843 be579829 3c502b1d 3d8f7b9e bcf39e58 bd85212a 3d2ebf14 bd220ddd 3c1fc9a6 3efce99c be11a922 3c49d3c8 be0a0bcf bd4c4134 3d03a4c1 bca9b745 bdbdce1a 3c2114f3 be5ab0bd 3da747d1 3e96266f bc8d2fc8 3d57521c bd1df19c bdeabb83 bd0d258c be16bbb9 bedc4b80 3cad7874 3cfcde8e 3ce8b854 bca4c9b8 3e3d1bdb 3bc51a04 3d93ad05 3e697894 3c408e90 3dc7022c bc833d1c be4cb833 bc298cfb 3c82a359 3e8ed3a0 bd043c5f bd4f5238 bd474b91 3d77cec2 3ed3d4ed beb5e17c bd6fe49b 3e1ff4af 3e0da1c4 3eee0094 3e7550ad 3dd5d128 bd9f9e03 3d8780a7 bd77ffc5 be163220 bd9af159 be1bcfb0 be3e8773 3dd3d8e3 3dd04b15 bde80422 3dc446ae 3e3fc64c 3d9c7b8c bea39fc8 bd83f6f6 3d8d844b 3d3aef21 3e05110b bd1eb04d 3ec06a35 bed184c6 be1df014 bdfa58ed bd33d32a 3d87183b 3dff3e40 3e21cb8d 3d0491ad 3cc34c4b 3e55b9fa 3f0849b0 bcb9701e 3cc76611 3d0b989f bdf248ae be85c770 bd8f1572 be805c72 bdca43e0 bb5d4176 bd705a63 bd22c837 3e7915bb 3c9cc4d2 3dcc90eb 3cb38558 bd31c988 bc88b549 be334662 bec88c69 bd983441 bd1af78f be2ac9d0 3ba60884 bdc59f1e 3c2c2bb6 be07c972 be11f639 3e387d0f 3d90330c bcc27927 3e87080c bc64b1e7 3c760e47 bdd88570 3c97c97f bce3c5ed be446acd 3c9966ae be86fed8 be277c1f 3e0317cd 3ec1bedb be480199 3bbaaf3b bdd232bd 3df14f1a bd7df15b 3d88c93e bdf7d18b 3d1987a9 bdf10367 3d6bd8cd 3d9060e9 3d501642 bde5d693 3e9b98d3 bdcc07d4 3d856ce2 bdc3e8ed 3cad05f0 be0d7bb6 bea722a1 3d977eca 3b54ecbb be6e017c 3da2dc11 bd4d8844 be742cf0 bda96b3b bd3bace8 be38b08c 3dbaf521 bc694172 bb8dca68 3dd942e2 3d84fd55 be286b6f be156352 3cabd2d9 bed33e0f bc5c279b 3e1fce4c be0121e3 bda49167 3cc5328c bddda17e 3d85661d bd325fb3 bd74c279 3e0d3a84 3e3cb98b be66af03 3b7e3803 3e04d820 bdbd8bd2 3e07c4b3 be281f3b 3e37886c bdb4eb49 bb3ca9b6 3e2877ac 3c0e34ee 3e27dee7 be49aadb bd976330 bdcd726d 3d892ba2 bd800d09 be85a479 bd2a54f0 bd91816c bd6ab42c 3c7e2ef2 bd94ab6e 3dad2a4f 3d902094 be45233a 3de472b5 3e525301 bd4f2688 bc9633be 3ed9d845 3f1d376a 3dba4173 bd469b4f 3c677621 bc5835f7 3de74382 bdc1e887 bb25e9d7 bccca740 3e034154 3dd2c687 bdad9c84 3c738928 bd55958c bcbbff49 bcac6280 bde71c04 bd9dce09 bc51ae5f bd612ed2 be851c23 3e431734 bcba27b8 3bee248b 3cd20dc0 bddd175f 3d8ea1b3 bd8e20cf 3c81db94 3cc3e2da bcdc7145 bc25acfe bdf89203 3d01658a bd80de37 bd5c17c9 bd93436d bdc97413 3ca3af3a bc5b6b95 3c8d7b08 3b0d43db bd44a0ac be040751 be0111ee bc2003ad bdade35c bbb76714 3ce67cbc be93347b 3e72a468 3d8ed5b4 3d5998c7 3cc3e3cc bc64b338 bc384350 bda67b4b bbae2b66 3c3dc642 3dc9b634 3decc353 bdf51759 3be40cb3 bb42fd1f bc9a40a1 3cc725ac bdaec6bd bce2c942 3d7eaacf bbb87162 3ccd06f0 3d3a5aa2 3e838c71 b9bdc7ea 3da7efc8 bbfa8640 3d29749b bc6e0166 bcb711d2 bd6397de bec2c16a bc1a3245 bd40903c 3de323ba 3d7764f8 3d9c918f 3ce7ddec bd8ac4d4 3b7ce727 bdb781ce 3e24d4f7 3e90f0e3 bdbecc66 3d3473e5 bcaa789c bd98f7c1 be54a3a6 be958b86 bed841ca 3ae00964 3ade33fb bd482f60 bcd0a72e be155d69 bcb5cf92 bed1b17b 3dc8f190 3d68c038 3e2bf924 bd000517 bea5a1c4 bed594b2 be4fdce0 be04dd8e bdcef9f1 bc61df78 3e4a49fa bd5d860e be517089 3dc84c3b bdf725dc bdcd0e22 bebaac71 3e1427a8 bc807807 bea316fc 3d62055e bde300ec bdff3002 bdff53f8 be13a27b bebeb305 be0af62c 3de83c64 be7ed537 bc9173a3 bb75be20 bcd2c1e5 3e90c8b6 be26a7cb bec081f0 bddd5131 3e4f8b17 bd622ced 3d8d5d75 3e28be28 bd2082cf 3a933b8e 3d1593f3 bee85b29 3d2b8f77 be279dff 3cbf82ea bd997f1d be321cf8 3df3e642 be3aae10 be35a381 3e0b6e55 be7e1106 3e751d01 3db77894 bd31ab28 3ebffd74 bd9ba5fd 3d592b04 3d36ac31 3d134bef bdea619b 3e8dbbb2 bd8ff5a9 3a035cae bc737d65 3d4b656e bdc5544b bda3528a 3e376007 bdceb45d 3db3127b 3d9aedfe be4e0310 bd9e1a43 3e908424 bdc401aa bdf506a4 3d98bf17 3e8b439a bdccf339 3e9fdb5a bd0319d6 3e2535e1 3d92e4d6 3d984a58 bd3ae7d6 bc60c8a3 3d292464 bdbaee17 be5e3206 bc0e5581 bd7a3f2a bc869c63 3d870c84 3dee827a bdc4cab7 3e6e26d2 be41ad8d bd264df6 3c8d75c4 3d6af292 bd899de4 3e510105 bd64738a be1d2f60 3d60d9f8 be10684b 3d5f3244 bd7efcd6 be50ffc0 3db302a9 3e2bfc3c bc98a505 3d1989fe 3d17762a bc958502 bbfc779a 3d06f5ba 3e0550d1 bdb32f76 3c903baa bc466322 3dada5b4 bd712b91 3df1651b bded2051 3e7a6b0b 3deb2c32 3e0bd682 bd5f77ea 3e0d2322 3c9dbe8e be33d93e 3c35c0e4 3d1f48d2 bbbec619 bdd7528e 3c96b697 3c5d6274 3dab1cad 3d89b5c0 bd4522b3 bd15a24e be621267 bd2a91e7 3c329440 bda8f82a bc9f5e3e be04f1cf 3daa18d2 3e39798b bd17b51b 3df0910d 3df4bb89 bdbb136b 3cdf4799 3d881e86 3c62da2c 3e28eca2 3b944171 bdca70e8 3ccc7353 3e472030 3ce6d832 3da65292 3db50086 bc42bb9a bd070e50 bdd2d9fb 3d6b21e5 bcce47d1 bdfc9c6f be4c519c 3d9dd3b8 3cb63bb9 bdd4041c be143ce8 bddaed55 bd39bd51 3ebeaa76 be8c375b be039165 3de57309 3e25497b 3df84dd2 bda8471b bc0fbd75 bd29275b 3c633c04 becfb740 3c939092 bd119d1c bebbfff9 bb3fe840 3d7fe487 3be67a36 bed96041 3def2f6e 3de41fa2 3e12c3c6 bdea1b04 bdea00f9 bf1352d8 3ca2673c 3d15a370 3e43e62f 3d780807 bdece037 bd7964af be45d5b3 bec0af21 be0bbc3d 3cdf08da 3d9c5d32 bcce6bc0 bcd48c84 be27fc22 3d10018e 3ec74304 3b51f5aa bc0b6485 bdc03410 be0d43d4 3dece0c3 be79c958 bd8ca7f6 3e02dbbf bdf4f2ba bdcaf143 bd109208 bece34c1 3e03167d 3c8e46de bd336783 bdf2b15d 3dcaf9fc 3dae4360 3e1bfd2b 3d15009c bd0b4204 3e2d266b bc59b733 bd291c24 3e4d27d0 3d373e2d bd291472 3e0c09b1 bc558de8 3d62d0a2 bce2532c bc35bee2 3bd5794d bd8776fe bdc65fab bd5bd1d8 3db0ae3b be1823c3 bdcdc323 3db3b9c4 3d8cb32b bdc0454d 3d88dae8 3e1a8216 3e1008fb bdaf8a05 3d417803 bd9e5863 bdb683ee 3d253815 bcce56d0 3e47ff4a be843400 3dbf3800 3d50199d 3ba6556b bd867fe6 3dad06c3 3d1828d8 be4f3799 3c6e400a 3e438842 3a07a2b8 3c49c7ed b8b87216 3dcaac28 bcb87955 bdc22b46 3c64169f bdc9af1e 3cf65cc0 bd526690 bd8c1b56 bd4aa499 bd64ee53 bd5c8e57 3d8d2961 bd37bed4 3d2aa685 bcc89d8d bd81d3a5 be352e94 3ca5bae2 3cb513f4 bd13b501 3dafeec7 3d9f8cf9 bdd1ba23 3e0508b0 3d14a6d1 3d9c1cc6 3d85791b 3d6e87df bd255eea 3dce343e be691af2 3cc5d676 3dc24742 bd071eca 3dee4048 3dd88370 bee07152 be51ff33 bd082635 bcd0abf1 bdb26465 3d6dde4b 3eda11d5 bda34b92 3d74833d 3dc59855 bdb49458 3cb2bf86 bd0f1df3 bda69d68 3e33f39e 3e11dd31 bdec7bf1 3d61b0f1 bd2f8082 bd36ae2e bf49395a bc70fa23 3dca4a3e bc76941e bca9561e 3e1439f9 3db5cb2f bcfca51f 3d07dc24 be19f724 3df6f109 bdeb0368 bd19c4f2 3dc783d2 be2cff88 3d4b24ba 3d201d31 bdb0de0e be053988 3d502195 3f2627ad bdfee735 3d110726 3dbb5568 3e0e4d27 bdd906fe 3c8f967b be41bab0 3d0d2d63 3d91d552 be0a17a8 3cd61f4e bc28ea69 3e13c7f8 bd44e74a 3dad9c94 bd48fec7 3de0b75b bdfa440e bd4a0828 3ce4c4f5 3c8ffdfe bd91f224 3dba6b68 bd42a82a bd35e98f 3caa3ab5 bc9aab7b bd4c9c30 bd6b2bd6 3cc819ce 3c4fe183 3cb87594 bceac129 bdbefaa1 3c8347bf bd08e315 bcf6474f bd04d594 3e508402 3dde0714 bb7b9722 bd5200af 3d1363f5 bf22931b bc96babb bc891319 bdc4e36b bd9f53c6 3bfd52db bdd50c4f bbb4b444 bd3f3201 bd8cf928 bc38f83e bd604f93 3b444b29 bd93ae3d be788690 3d1a3dec bd8ad249 bb89be1a bdac8d7c ba8ed3ea 3e6bbb6c bda9af19 3dab98a4 3e47a596 3dd36554 be149ae1 b95ddf01 3db796ed 3cb73183 3c168af5 3d5cf707 be2b9de7 3e4c8fb4 3cd0cc0b be0df62a 3db266ec bbb72f80 3cd2d83c bc1891d0 bd92334d 3ce195a9 3e003785 3d89ffd7 3e194b93 3eadb7ee bde98940 bcdc86c8 bc9558a4 3e0b4894 bdebadc8 be1ea318 bd2e7151 bc400b76 3c877985 3d6a8a93 3d231a6c bc3459db 3d951b7d be00fe2f 3d4654f6 be18af50 3c80752b 3d44ac55 bd3863fe bda56270 3d078fcc 3e15c9de bc8db101 bd0b2c83 3c76d875 3d52eefc 3d1e83c9 3d2ea676 3d4569f6 3dd886de bd39694a bcb9d995 bd164b07 3e7d799a 3c7b4cb3 3df541f4 3d806a25 3d91a928 3d386fda ba8188c4 bc324307 3d3406a8 3e207012 bdf19d82 bdeca518 bcad3dc2 bc248ed5 3d997783 3daa254a bd35ac46 be35c149 3e9cc04b bdb714a9 bdad43e3 3d232e2f bdcfc016 bc8739cb 3d895058 3d5c10e7 bdcbc4fd 3d8c959c 3b3cfb7c bdc9203a bdc90462 3e84f6bf 3c27f5a1 bdc2a839 bdabf745 3d67452f bd8e18b6 3d9235ec be006c4e 3e9ea13e bd3355ba 3e4e67ed 3c1cdab0 be7e519d bdb0b644 bde53e40 3d814807 39c7d327 bdeae56b 3d9c6981 be0e78a4 bd90c867 3ea17871 3e2d23a6 bdf1a5f3 3e19095c be6cde40 bd0a4d0c 3dfc17c0 bc39bdea 3e8f5253 3d850ca1 3e49650d 3c9bc5ad bd4b6f3d 3baa1085 bd547446 3cfc31b2 be1fd8da bdded8a3 bd37e536 3e08facc 3c347675 bacee335 3e16046d 3c4ad73a 3d2eb50a 3ece615a bd05bd6c be5f988a 3e3faa4b be28707b bda1688e 3da64280 3ea1388a 3e9398e9 3e281229 3e19a906 3d4fafdf 3caf0200 bb8ba633 bc8190f2 3da06051 bbc6f93f 3d8a4215 bd5312c4 3f04dcb8 3e8c69e2 bd06e205 bd0f7516 3e1d9feb 3bf35a14 bdb0ea08 3dbf3a4a 3e750a2c 3da7c9c4 3e4cde6b 3b1fc910 3d010cb4 be3558d1 bea71b69 bd86bc31 3e8306e6 bdb2cd76 3eb6564a 3ebc4a08 bdb04df4 3dfa6ebf bdc84bf9 3c6b4e07 3d7e8d8b be330785 3d9af831 bde4a31d bdccb74b bd66f2bc be1b3dca bedc73bb 3da72dd1 bdf82578 bd2e401e bdb0e198 3eafab9a 3c03dd54 3e7895e6 bdd9b72a be78a357 3d9b1806 bef50505 3e3020dd bde27761 3c830ad2 bd8b1723 bb4a2040 bd5c6963 bde4724c bdc6bc67 3d8122b2 be6c7cc3 bdf172a9 ba782a35 bace6828 3cb4e294 bcac2552 3da9e6be beb733d1 3de478ab 3cbfb935 be75d984 be31a8e1 bebcb686 3e4dd911 be2040e4 3d44cf84 3e08be9a be03cd27 bd8ec40d 3dc1f74b be942bf5 397574f9 be953fce bde2d4ff be6a5ed9 3e886437 3ea9141e bd299909 be137fbf bd5a1ebf be171cc9 bdfe0a83 3dccc922 3e50d2cd 3d4435b1 bdeb7839 3eb3c3a8 bd4a9549 3d488e5a bda8bab4 bea38846 3d9deda1 be88bac2 3e2d4337 bdafcb53 bbbd997a 3dc5de51 3cb511ac be2656d1 3dab0e18 be504194 be9f261c 3da9f12f 3ddc486c bdc24785 3c6aafdf bd8473c0 bdb02249 3e744a0a bd7f0d1a 3ab446a6 3ee87f6d bdbadd19 3cd1a231 3d27036a be491b12 3e045e46 3b620b3d befb44ce bd402a2c bd9c53b7 bb4e37fe 3dd421b5 3c2df473 bd8d2f3f bdef89ea 3da36808 bdc780b0 bd07023c be3dc0db be037116 bd9f611f 3e38132a 3d06d32c 3b2a9cc4 bd4c7e47 3e0d0a8c bd9389c9 bef10bcb 3e8b8a4a 3ed0030d 3e281eb8 3d483cdf 3e187af5 3e9fd6c8 3d491fcc bcca06ba 3dbbf878 3d13c815 3e916c77 bd8a27b1 bb9a9279 bc8d6452 bc6205ca 3cffe5a3 bdd26bdf 3dac95af 3d7a1769 3d3657be 3a6e8a12 3d849433 3d82000b bcf00852 3d90c579 3ef8610d 3dacb24e bd92739a bc9d6524 bd025d4d bce08101 bc2c7f48 3c79cd08 bb86d4bf bc37ab47 bb82ee1b bd0d949d bcd3d693 3a897d69 b87f0193 3cf29ba4 3d940c78 3ba3d046 3c8637e1 bc17ada2 3cbe365c 3c004943 3aa7665d 3f24e2fc 3d3841a6 bd9a7b1d 3c021d1b 3da92e7e 3c2b30fa 3dc85785 bdf63ccb 3d4d03d3 bcbb71cc bcae6f00 3c6c24c1 3ba65213 3cfcac23 bc7633b9 bdb1c71d ba5dc670 bc9d4174 bb924552 3d6ea616 b8962eae bd799771 3d37fd00 3d2229dc 3d8f24f7 3d59f3fc 3d6bb248 bcae37e6 3c457c24 3d99b952 bc46979a bcc1fe56 be197a3d ba97dd1a bd72100a 3d56a816 3c528d22 bdc8ca31 3b42e75f 3d509a4e be8bce16 3ce29f98 3d3615ad 3c26a69a 3c8800f4 bd7635e0 3ceab222 3cc39dc8 3d9df52f bf24e306 3cab7019 3e3596a8 bf0c6b60 3cff8b5b be506272 be864e83 3e6b4ed1 3deadc0b 3e0a1b3d 3dca1a96 3c912fe0 bd4c4727 bc27e1f7 be0fd46c be3188ac 3e9059c7 be065384 bdd54871 bd01e6d8 bc87071c be24c2b8 bd5ecada bb4ab5b0 be62da9a bc00f150 3d712803 3da3c0c1 be041995 bc2b611e 3e8f37b7 3ef8244d bee3598c bd020c61 3e102140 3dcccef9 bd187dbd bdcfa026 3d40dca5 3c8e09ad becbaaeb 3dd4088a baa89286 bda1ca71 3d7e61a6 be51fedc bddcde9d be634357 be27f073 3e2d0d22 3dae63e3 be03e8fb 3db210db 3e933f0c 3e6250a9 3bf16653 bde24754 be5dcd14 bd919957 3dee7dee 3e2164ce bd8f3218 bdd3545b 3d118120 3d171bd7 3d5db0ee bb7aabcd bd18d640 3c5cf695 3c8250c2 be2d992e 3daaebdd be2dff9e be249424 3da7ab5e be1b8d08 bdcfb6f8 3dc4bf6c bb4fbb63 3d2a9bd9 bdf36452 bddb5119 be4aeda2 3d87e9e9 3d731254 be1acd9e 3e9220d6 3d8121ba 3ee1c434 bd7f08d0 3db46f25 bc7342f2 bd153f08 bbd3e049 3de0c5d0 3e0f3598 bcc96350 3ccf2b45 3d4c7d07 be2960e6 3e78a663 bf07f7f6 bb613d71 3aa7d239 bd456b71 be44d6c4 3dd8903f 3c383f46 be3e57d6 bce81a44 be1cd805 3c20b533 3df2b941 be218b8b bbb9538c bc85bb9f be0ba08e bdabb69f 3de68bd4 3d46fa74 3d1d0dc2 bcd3f6af 3ba5cc26 3dd1568b 3efaf357 3d783096 be0aa54c 3e037104 3d202df7 3d77911d bbf6bedd bd891ce0 3d8a29f0 3ea59462 bec4b79d 3adab07b be17b64c be085ba0 3c9f091b 3c043583 bd08a9a4 bd061aa1 3dfbb10a 3d878cc1 be2fad29 be7945cb 3e0e4a49 ba271e90 bd77a620 3dea9555 bd6cd2d4 3e334226 3ce48e99 3e524688 be2dc35c bd5d1cdd 3d9dd406 3dd1aef7 3cd44fa3 3d94b05f 3dd68cdd be87e736 bcdfb08c be0bd534 3c06047e be4845d1 bf002bc3 bcfd1fee bda1d935 bd8a07a8 3dd00d83 bd13aa53 be4f7f58 be2be015 be92535d 3ce37631 3d5b3799 3decf39a 3d81107a bc3f5f36 3d9fba32 3d6fe4f6 bd31691e 3d336793 be4ac875 bcac4a55 3ccc4dce 3e418039 3e091b32 3d9ff3a7 bcf99c73 be63ddbf 3d11d628 bd38a39e bde49d9b 3de386b5 bdca0b98 bd4465a2 3da7252f bdad684b 3e581a92 bdf925bd bd4b8a53 3d22b687 3d02df92 be2d9fb9 be3b6b2c bc1754aa be981748 bc17b93a 3bc28f4a 3debbf94 bde61311 3d2b64e0 3d6d2b7e 3da9957c bd60fd5e bbb9569f bd99443b 3da7de1d bdba0f4d 3d73ca62 3e084f0b be0ec037 3d2133ba bccd30cc bd40b3a6 3d95b104 3e1739f2 bd8c3cef bd094206 3d1f77d7 3d71b340 bd149af4 bb97e544 3c8f9b18 3baf8e27 bd2b6d1c be405a75 3dbd9c64 bd90f969 bc15cace bde2992d bc091273 bd97e6cb bdb13bc4 bda7f9cf 3c38a9c0 3c5070fd 3ca0bdb2 bcc5e5bc 3c1bc862 be2fd8db be968071 3d8dbb52 bc2200c8 bda660b8 bbb307ac bde7bb81 bde934cb bcaf8365 bcb99669 3be33459 3c890822 3d8777f6 bc324dfa bce0b541 bbac112f 3eb6eefb 3c8222a0 bd89a40a beea00f8 bd248371 bcc66d2e 3d62d615 bc876384 3d210b64 be7b9234 bd36faff bd17f067 3d423f02 bce62e32 bcffddbd bda8f2ee 3da3b0d0 3eb74f6c bccfef0f 3e08b4dc 3da9c4a0 3da6327f bd082b1e bd1295f9 bcfe9970 3cc0e22d 3da20aa4 3c5ba215 3cd0f2a4 bdd73886 bd3b946f 3d80727a 3f4cb064 bc9a17b3 3d9debca 3da7b4df bcd09b67 bd0534d3 3d58ddec bd1d0486 3ce03d8f 3c6a0ce2 bd34e610 3e5a9d34 3dd90536 3cd1eb95 bc4f2174 bdd927f8 3db763cb bedcf97d beacd96b bcaaddf2 be3718d8 3bf07a9d 3d0801ac bdbc7562 3dd14f90 bdb815de be2a1165 3cf5da2a 3ddc8ef8 3e31a3c6 bd11e9bd 3c844c3f 3eb4afed bdcfb84d be56cf60 3f119ee7 be0449f5 bc32f74c be3fff6d 3d08601d bd00d510 3e4997cc 3e827a23 3da9a50f bebc33fb be646abd bdb1aed9 3b45d85c bd561f37 be9b9b2c 3e6867cc 3df17715 3d73f52d bd3e88da 3d67a3fc 3d0c1442 3e2ab8b8 3ca5ca38 3ea125e8 bd8d5c5b bdf2c872 3d7ec6a4 bd0483ad bcfb0b53 bde54870 be16d317 be127b7c 3e667b67 bd725ae0 3da6e7a3 bdd132c0 bc892085 3e605a45 3ecb9402 3c845df2 be0805b8 bcab75bb be1c7f54 bc436bc4 3d576d8c 3c824369 3e00f706 3e2a7744 3de43ea9 bdcf9979 3ce0f395 bd074098 bae2ffd0 bc8a0489 be3ffdcc 3e36dcca 3dc34f95 3d6b2477 3df64585 3db76b63 3f03cfba 3dc3f894 3e1c8d69 be1a1035 3ceab01f be392d5d 3e87f922 3e0cc289 be949503 bdaf2ccb 3db1843d bdea7404 3dd55de6 bd8b7d4b bc337613 3e270e2a be611b47 bede9f9f 3d96d0f1 be87175b 3de10a9a 3d6ae1f7 3ce5c67c 3cd69f78 bce61841 bd935764 3c85f4ee 3eead284 bd5f05dd 3d29211c 3e314224 bd6da321 3ccac6e0 3e007b51 3d0aa1eb 3f00822f bdc535dc bb9f7223 bb07c07b bdc6815e 3d12ec1b bcecd95e 3dc65bbd 3d18d112 bd9418ce 3d99fc8e be442e41 399a5d83 3b3e992f bdc361c7 3bfdb38a bdfac0b8 3d246bf0 3d944012 bddfc240 3d755f79 bbbf1c22 3b0fdfcd bbe9dcdd 3cfa22a1 bddb00f0 bdfa5fc6 bdc33814 3d923995 3c1bee56 3ce3e6e8 3e3686ff 3daf7b21 3d562254 bcd691aa bdb3be7b bdefb626 be2ce09e be7745c3 be4bd5aa 3e848cc4 3d562c44 bdc0e731 3e08b5ec 3caa6a4b bdc19c56 3be72bef bc511ca8 bcb8ba26 3de8c643 3e1bab04 3cefdef1 bdd5761c bde34e24 bd114883 be3ccbf5 beac9d03 3a70bbff be64b41c 3b881810 3ecef798 3d4c28ca 3cc69324 3e1161d6 be982829 bc944148 3e317238 3d8f6da7 3d769d01 3dedc019 be969aef 3d234e56 be0b5fb8 3d555512 bde88771 3e8895e7 bdde7a62 3de309e4 3d6854c2
body.stage1.5.4.weight 64 3e60b11d 3e10bc8d 3ea7b92c 3ec03341 3e93a735 3e86c05c 3e7384cf 3dcb5441 3e9cc94e 3e8ce7d9 3e94ca05 3e7ebf69 3edff8be 3e77db34 3ebb199c 3eaed154 3e31c6de 3e070419 3eab6df1 3e7c26ae 3e94c428 3ec2fbbb 3e7f85b9 3e87ac65 3ec23dd2 3e862f93 3ecceaa7 3e096a94 3ec016fb 3dc05bdb 3dbed475 3dd05fe5 3edc4b62 3eb05b12 3e7316c9 3e9b920e 3e8bbd9c 3e6f28b4 3e75b9ff 3f060cd3 3e6b5adf 3e9e0f57 3e00c633 3e979ed8 3e957755 3e079deb 3eca6435 3e9c6692 3eb13a05 3e806396 3e5db7a5 3e9db906 3df92d16 3ea18611 3eade1e7 3e1ec587 3ea445f9 3eb154e6 3e8c7b05 3db16000 3ea5a826 3e07bb64 3eafcfc3 3e8abf36
body.stage1.5.4.bias 64 3ea516e1 be574987 3dfdd6b4 3dc72e5b 3da94233 be174d50 3e9afbaa 3e755bcc be7c6fbf bde37694 3dc57128 3cd6a7ac 3e56690a 3eb2290a bcc86204 bd694974 3e7ff6ec 3e75bfc9 bbbcac00 3dce4dcf 3c9caf13 bea33cb4 3eab595a bd8853b8 3c8bf271 3e68cd7e bdee461e 3eba50b0 bddbd0f3 3ebcdba1 3eb73730 3efacf89 3d97b264 bde88991 3df7c64f be0fd36c 3e57c350 3aae49b8 3e512a3d 3dcad860 3df23c2b 3daead1a 3e9fe901 3dc218e9 bdc2241a 3e6300d4 be8f1b55 3e6e1ae0 3e157890 bcc3b4ff 3e4383ed 3dad585f 3ecfb257 3d4a8fb1 be0df4a3 3dd5c04e 3e62290c be822921 bdffc514 3eae6b8f bd97c892 3eda2473 3d4a177f 3c2df899
body.stage1.5.4.running_mean 64 3dddb470 3deb7db6 bbdd8bd2 bda9048b 3e5790fb bd9c9523 3f417dee bd61b45d be8764ba be3f0ab6 be106a9c 3eb6f605 3f52eec8 3f1ef7ff 3dcd9a0e 3ecb6c34 3d6f3668 3e5129df 3ec4efb4 3ee45a62 3f0ea9e6 bf2a89b2 bdade888 3f1380c3 bd8c820a bf5b4af9 3e94b00b 3eaf5e79 3f0a9c98 becc2158 beb2ed18 be989e57 beb8172b be066435 beb4b97e 3dd6a30b 3ccdcc77 bebf0eae 3eed7f8e 3e621e68 bef51824 3ea0ccae 3e1e6e45 beedf4d8 3dacf027 3e8a7a2e bee83519 3a27f30a bdbf0baf be311d55 3e96cb73 3d4680ea 3d85a3a7 be6df53a 3f3b1c55 3e3bb4ea bead6d38 be5c021e bef1b9e6 bea529d0 3effb834 3e36c90f 3f2b9851 be1d24bf
body.stage1.5.4.running_var 64 3e2742b9 3d26de73 3e374f9f 3ea33a8f 3e1aefc7 3e499c72 3e9cd864 3de84915 3e345ec1 3e02ff3e 3dd229a0 3dcd91c6 3f5809b6 3ecb0c85 3e67db29 3df00c22 3d8f8235 3dc7d21c 3e712ad8 3dda9627 3dd04166 3e384fa8 3e57bd86 3e37a4ed 3e0c0f55 3ddf4ab3 3e961f54 3e318ab9 3e6b1a1d 3dd564ef 3e02e47d 3e361b66 3f0242b6 3e385bfe 3dd9d745 3dae0590 3dc1c04e 3d7345a5 3e2fced9 3ed0814f 3e0458d6 3e405748 3dcd0191 3e4fcdb2 3e678b8e 3e28e60a 3f106c2b 3dd892d6 3e88b4dc 3dcbc4fd 3e5f3544 3d8a3a3c 3e429f16 3ea663f9 3d980c63 3e0b3a18 3e8d7710 3ea33a1b 3e615178 3e39fe96 3e16b152 3df54b04 3e99b3c4 3e3de1f6
body.stage1.5.4.num_batches_tracked 1 48091200
